{
  "version": "1.0",
  "truncation": null,
  "padding": null,
  "added_tokens": [
    {
      "id": 0,
      "content": "[UNK]",
      "single_word": false,
      "lstrip": false,
      "rstrip": false,
      "normalized": false,
      "special": true
    }
  ],
  "normalizer": null,
  "pre_tokenizer": {
    "type": "Whitespace"
  },
  "post_processor": null,
  "decoder": null,
  "model": {
    "type": "BPE",
    "dropout": null,
    "unk_token": "[UNK]",
    "continuing_subword_prefix": null,
    "end_of_word_suffix": null,
    "fuse_unk": false,
    "vocab": {
      "[UNK]": 0,
      "!": 1,
      "\"": 2,
      "%": 3,
      "&": 4,
      "'": 5,
      "(": 6,
      ")": 7,
      "*": 8,
      "+": 9,
      ",": 10,
      "-": 11,
      ".": 12,
      "/": 13,
      "0": 14,
      "1": 15,
      "2": 16,
      "3": 17,
      "4": 18,
      "5": 19,
      "6": 20,
      "7": 21,
      "8": 22,
      "9": 23,
      ":": 24,
      ";": 25,
      "<": 26,
      "=": 27,
      ">": 28,
      "?": 29,
      "@": 30,
      "A": 31,
      "B": 32,
      "C": 33,
      "D": 34,
      "E": 35,
      "F": 36,
      "G": 37,
      "H": 38,
      "I": 39,
      "J": 40,
      "K": 41,
      "L": 42,
      "M": 43,
      "N": 44,
      "O": 45,
      "P": 46,
      "Q": 47,
      "R": 48,
      "S": 49,
      "T": 50,
      "U": 51,
      "V": 52,
      "W": 53,
      "X": 54,
      "Y": 55,
      "Z": 56,
      "[": 57,
      "]": 58,
      "a": 59,
      "b": 60,
      "c": 61,
      "d": 62,
      "e": 63,
      "f": 64,
      "g": 65,
      "h": 66,
      "i": 67,
      "j": 68,
      "k": 69,
      "l": 70,
      "m": 71,
      "n": 72,
      "o": 73,
      "p": 74,
      "r": 75,
      "s": 76,
      "t": 77,
      "u": 78,
      "v": 79,
      "w": 80,
      "x": 81,
      "y": 82,
      "|": 83,
      "~": 84,
      "©": 85,
      "²": 86,
      "·": 87,
      "‘": 88,
      "’": 89,
      "“": 90,
      "”": 91,
      "…": 92,
      "‧": 93,
      "※": 94,
      "Ⅰ": 95,
      "Ⅱ": 96,
      "∼": 97,
      "▲": 98,
      "△": 99,
      "◆": 100,
      "●": 101,
      "☞": 102,
      "ㆍ": 103,
      "㈜": 104,
      "㎏": 105,
      "㎜": 106,
      "㎝": 107,
      "㎞": 108,
      "㎡": 109,
      "㎦": 110,
      "㎿": 111,
      "人": 112,
      "元": 113,
      "圖": 114,
      "壇": 115,
      "子": 116,
      "孔": 117,
      "學": 118,
      "官": 119,
      "小": 120,
      "尖": 121,
      "得": 122,
      "德": 123,
      "杏": 124,
      "歌": 125,
      "獸": 126,
      "碑": 127,
      "神": 128,
      "福": 129,
      "絃": 130,
      "習": 131,
      "閣": 132,
      "非": 133,
      "魂": 134,
      "가": 135,
      "각": 136,
      "간": 137,
      "갇": 138,
      "갈": 139,
      "감": 140,
      "갑": 141,
      "값": 142,
      "갔": 143,
      "강": 144,
      "갖": 145,
      "같": 146,
      "갚": 147,
      "개": 148,
      "객": 149,
      "갯": 150,
      "거": 151,
      "걱": 152,
      "건": 153,
      "걷": 154,
      "걸": 155,
      "검": 156,
      "겁": 157,
      "것": 158,
      "겉": 159,
      "게": 160,
      "겐": 161,
      "겠": 162,
      "겨": 163,
      "격": 164,
      "겪": 165,
      "견": 166,
      "결": 167,
      "겸": 168,
      "겹": 169,
      "겼": 170,
      "경": 171,
      "계": 172,
      "고": 173,
      "곡": 174,
      "곤": 175,
      "곧": 176,
      "골": 177,
      "곰": 178,
      "곱": 179,
      "곳": 180,
      "공": 181,
      "과": 182,
      "관": 183,
      "괄": 184,
      "광": 185,
      "괜": 186,
      "괴": 187,
      "굉": 188,
      "교": 189,
      "구": 190,
      "국": 191,
      "군": 192,
      "굳": 193,
      "굴": 194,
      "궁": 195,
      "궈": 196,
      "권": 197,
      "궤": 198,
      "귀": 199,
      "규": 200,
      "균": 201,
      "그": 202,
      "극": 203,
      "근": 204,
      "글": 205,
      "금": 206,
      "급": 207,
      "긋": 208,
      "긍": 209,
      "기": 210,
      "긴": 211,
      "길": 212,
      "김": 213,
      "깃": 214,
      "깊": 215,
      "까": 216,
      "깎": 217,
      "깐": 218,
      "깜": 219,
      "깝": 220,
      "깨": 221,
      "꺼": 222,
      "껏": 223,
      "껐": 224,
      "께": 225,
      "껴": 226,
      "꼈": 227,
      "꼬": 228,
      "꼭": 229,
      "꼰": 230,
      "꼴": 231,
      "꼼": 232,
      "꼽": 233,
      "꽁": 234,
      "꽉": 235,
      "꾀": 236,
      "꾸": 237,
      "꾼": 238,
      "꿀": 239,
      "꿈": 240,
      "꿉": 241,
      "꿔": 242,
      "꿰": 243,
      "뀌": 244,
      "뀐": 245,
      "뀔": 246,
      "끄": 247,
      "끈": 248,
      "끊": 249,
      "끌": 250,
      "끔": 251,
      "끗": 252,
      "끝": 253,
      "끼": 254,
      "낀": 255,
      "낄": 256,
      "낌": 257,
      "나": 258,
      "낙": 259,
      "난": 260,
      "날": 261,
      "낡": 262,
      "남": 263,
      "납": 264,
      "낫": 265,
      "났": 266,
      "낭": 267,
      "낮": 268,
      "낯": 269,
      "낳": 270,
      "내": 271,
      "낸": 272,
      "낼": 273,
      "냅": 274,
      "냈": 275,
      "냉": 276,
      "냐": 277,
      "냥": 278,
      "너": 279,
      "넌": 280,
      "널": 281,
      "넓": 282,
      "넘": 283,
      "넛": 284,
      "넣": 285,
      "네": 286,
      "넥": 287,
      "넨": 288,
      "넷": 289,
      "녀": 290,
      "년": 291,
      "념": 292,
      "녕": 293,
      "노": 294,
      "녹": 295,
      "논": 296,
      "놀": 297,
      "농": 298,
      "높": 299,
      "놓": 300,
      "놨": 301,
      "뇌": 302,
      "뇨": 303,
      "누": 304,
      "눅": 305,
      "눈": 306,
      "눌": 307,
      "눔": 308,
      "눠": 309,
      "뉘": 310,
      "뉜": 311,
      "뉴": 312,
      "느": 313,
      "는": 314,
      "늘": 315,
      "능": 316,
      "늦": 317,
      "니": 318,
      "닉": 319,
      "닌": 320,
      "닐": 321,
      "님": 322,
      "닛": 323,
      "닝": 324,
      "다": 325,
      "닥": 326,
      "단": 327,
      "닫": 328,
      "달": 329,
      "닭": 330,
      "닮": 331,
      "담": 332,
      "답": 333,
      "닷": 334,
      "당": 335,
      "대": 336,
      "댄": 337,
      "댈": 338,
      "댓": 339,
      "댜": 340,
      "더": 341,
      "덕": 342,
      "던": 343,
      "덜": 344,
      "덧": 345,
      "덩": 346,
      "덮": 347,
      "데": 348,
      "덱": 349,
      "덴": 350,
      "델": 351,
      "뎀": 352,
      "도": 353,
      "독": 354,
      "돈": 355,
      "돋": 356,
      "돌": 357,
      "돕": 358,
      "동": 359,
      "돛": 360,
      "돼": 361,
      "됐": 362,
      "되": 363,
      "된": 364,
      "될": 365,
      "됨": 366,
      "됩": 367,
      "두": 368,
      "둑": 369,
      "둔": 370,
      "둘": 371,
      "둥": 372,
      "둬": 373,
      "뒀": 374,
      "뒤": 375,
      "뒷": 376,
      "듀": 377,
      "듈": 378,
      "드": 379,
      "득": 380,
      "든": 381,
      "듣": 382,
      "들": 383,
      "듬": 384,
      "듭": 385,
      "듯": 386,
      "등": 387,
      "디": 388,
      "딜": 389,
      "딤": 390,
      "딥": 391,
      "딧": 392,
      "딩": 393,
      "따": 394,
      "딱": 395,
      "딴": 396,
      "땅": 397,
      "때": 398,
      "땐": 399,
      "땜": 400,
      "떠": 401,
      "떤": 402,
      "떨": 403,
      "떴": 404,
      "떻": 405,
      "떼": 406,
      "뗄": 407,
      "또": 408,
      "똑": 409,
      "뚜": 410,
      "뚫": 411,
      "뚱": 412,
      "뛰": 413,
      "뜨": 414,
      "뜬": 415,
      "뜯": 416,
      "뜸": 417,
      "뜻": 418,
      "띄": 419,
      "띈": 420,
      "라": 421,
      "락": 422,
      "란": 423,
      "랄": 424,
      "람": 425,
      "랍": 426,
      "랏": 427,
      "랐": 428,
      "랑": 429,
      "래": 430,
      "랙": 431,
      "랜": 432,
      "램": 433,
      "랩": 434,
      "랫": 435,
      "랬": 436,
      "랴": 437,
      "략": 438,
      "량": 439,
      "러": 440,
      "럭": 441,
      "런": 442,
      "럴": 443,
      "럼": 444,
      "럽": 445,
      "럿": 446,
      "렇": 447,
      "레": 448,
      "렉": 449,
      "렌": 450,
      "려": 451,
      "력": 452,
      "련": 453,
      "렬": 454,
      "렴": 455,
      "렵": 456,
      "렷": 457,
      "렸": 458,
      "령": 459,
      "례": 460,
      "로": 461,
      "록": 462,
      "론": 463,
      "롤": 464,
      "롭": 465,
      "롯": 466,
      "롱": 467,
      "뢰": 468,
      "료": 469,
      "룡": 470,
      "루": 471,
      "룩": 472,
      "룬": 473,
      "룰": 474,
      "룸": 475,
      "룹": 476,
      "뤄": 477,
      "류": 478,
      "륙": 479,
      "륜": 480,
      "률": 481,
      "륭": 482,
      "르": 483,
      "른": 484,
      "를": 485,
      "름": 486,
      "릉": 487,
      "릎": 488,
      "리": 489,
      "릭": 490,
      "린": 491,
      "릴": 492,
      "림": 493,
      "립": 494,
      "릿": 495,
      "링": 496,
      "마": 497,
      "막": 498,
      "만": 499,
      "많": 500,
      "말": 501,
      "맙": 502,
      "맛": 503,
      "망": 504,
      "맞": 505,
      "맡": 506,
      "매": 507,
      "맥": 508,
      "맨": 509,
      "맵": 510,
      "맹": 511,
      "맺": 512,
      "머": 513,
      "먹": 514,
      "먼": 515,
      "멀": 516,
      "멈": 517,
      "메": 518,
      "멘": 519,
      "며": 520,
      "면": 521,
      "명": 522,
      "몇": 523,
      "모": 524,
      "목": 525,
      "몫": 526,
      "몬": 527,
      "몰": 528,
      "몸": 529,
      "몹": 530,
      "못": 531,
      "묘": 532,
      "무": 533,
      "묵": 534,
      "묶": 535,
      "문": 536,
      "묻": 537,
      "물": 538,
      "뭐": 539,
      "뭔": 540,
      "뮌": 541,
      "뮤": 542,
      "므": 543,
      "미": 544,
      "믹": 545,
      "민": 546,
      "믿": 547,
      "밀": 548,
      "밋": 549,
      "밍": 550,
      "및": 551,
      "밑": 552,
      "바": 553,
      "박": 554,
      "밖": 555,
      "반": 556,
      "받": 557,
      "발": 558,
      "밝": 559,
      "밤": 560,
      "밥": 561,
      "방": 562,
      "밭": 563,
      "배": 564,
      "백": 565,
      "밴": 566,
      "밸": 567,
      "뱅": 568,
      "버": 569,
      "번": 570,
      "벌": 571,
      "범": 572,
      "법": 573,
      "벗": 574,
      "베": 575,
      "벤": 576,
      "벨": 577,
      "벼": 578,
      "벽": 579,
      "변": 580,
      "별": 581,
      "볍": 582,
      "병": 583,
      "보": 584,
      "복": 585,
      "본": 586,
      "볼": 587,
      "봄": 588,
      "봇": 589,
      "봉": 590,
      "봐": 591,
      "봤": 592,
      "부": 593,
      "북": 594,
      "분": 595,
      "불": 596,
      "붐": 597,
      "붓": 598,
      "붙": 599,
      "뷰": 600,
      "브": 601,
      "븐": 602,
      "블": 603,
      "비": 604,
      "빅": 605,
      "빈": 606,
      "빌": 607,
      "빙": 608,
      "빚": 609,
      "빛": 610,
      "빠": 611,
      "빡": 612,
      "빨": 613,
      "빼": 614,
      "뻔": 615,
      "뻗": 616,
      "뼈": 617,
      "뽐": 618,
      "뽑": 619,
      "뿌": 620,
      "뿐": 621,
      "쁘": 622,
      "쁜": 623,
      "쁨": 624,
      "삐": 625,
      "사": 626,
      "삭": 627,
      "산": 628,
      "살": 629,
      "삶": 630,
      "삼": 631,
      "상": 632,
      "새": 633,
      "색": 634,
      "샌": 635,
      "생": 636,
      "샤": 637,
      "샵": 638,
      "서": 639,
      "석": 640,
      "섞": 641,
      "선": 642,
      "설": 643,
      "섬": 644,
      "섭": 645,
      "섯": 646,
      "섰": 647,
      "성": 648,
      "세": 649,
      "센": 650,
      "셀": 651,
      "셈": 652,
      "셉": 653,
      "셋": 654,
      "셔": 655,
      "션": 656,
      "셜": 657,
      "셧": 658,
      "소": 659,
      "속": 660,
      "손": 661,
      "솔": 662,
      "솟": 663,
      "송": 664,
      "쇄": 665,
      "쇼": 666,
      "수": 667,
      "숙": 668,
      "순": 669,
      "술": 670,
      "숨": 671,
      "숫": 672,
      "숭": 673,
      "숲": 674,
      "쉬": 675,
      "쉰": 676,
      "쉴": 677,
      "쉽": 678,
      "슈": 679,
      "스": 680,
      "슨": 681,
      "슬": 682,
      "습": 683,
      "슷": 684,
      "승": 685,
      "시": 686,
      "식": 687,
      "신": 688,
      "싣": 689,
      "실": 690,
      "싫": 691,
      "심": 692,
      "십": 693,
      "싱": 694,
      "싶": 695,
      "싸": 696,
      "싼": 697,
      "쌍": 698,
      "쌓": 699,
      "써": 700,
      "썬": 701,
      "썼": 702,
      "썽": 703,
      "쎄": 704,
      "쏘": 705,
      "쏟": 706,
      "쓰": 707,
      "쓴": 708,
      "쓸": 709,
      "씀": 710,
      "씨": 711,
      "씩": 712,
      "씬": 713,
      "씹": 714,
      "아": 715,
      "악": 716,
      "안": 717,
      "앉": 718,
      "않": 719,
      "알": 720,
      "암": 721,
      "압": 722,
      "앗": 723,
      "았": 724,
      "앙": 725,
      "앞": 726,
      "애": 727,
      "액": 728,
      "앤": 729,
      "앨": 730,
      "앱": 731,
      "앴": 732,
      "야": 733,
      "약": 734,
      "얀": 735,
      "양": 736,
      "얘": 737,
      "어": 738,
      "억": 739,
      "언": 740,
      "얻": 741,
      "얼": 742,
      "얽": 743,
      "엄": 744,
      "업": 745,
      "없": 746,
      "엇": 747,
      "었": 748,
      "엉": 749,
      "에": 750,
      "엑": 751,
      "엔": 752,
      "엘": 753,
      "엠": 754,
      "엣": 755,
      "여": 756,
      "역": 757,
      "연": 758,
      "열": 759,
      "염": 760,
      "엿": 761,
      "였": 762,
      "영": 763,
      "옆": 764,
      "예": 765,
      "옛": 766,
      "오": 767,
      "옥": 768,
      "온": 769,
      "올": 770,
      "옭": 771,
      "옮": 772,
      "옳": 773,
      "옵": 774,
      "옷": 775,
      "와": 776,
      "완": 777,
      "왓": 778,
      "왔": 779,
      "왕": 780,
      "왜": 781,
      "외": 782,
      "왼": 783,
      "요": 784,
      "욕": 785,
      "용": 786,
      "우": 787,
      "욱": 788,
      "운": 789,
      "울": 790,
      "움": 791,
      "웃": 792,
      "워": 793,
      "원": 794,
      "월": 795,
      "웠": 796,
      "웨": 797,
      "웬": 798,
      "위": 799,
      "윈": 800,
      "윙": 801,
      "유": 802,
      "육": 803,
      "윤": 804,
      "율": 805,
      "융": 806,
      "으": 807,
      "은": 808,
      "을": 809,
      "음": 810,
      "응": 811,
      "의": 812,
      "이": 813,
      "익": 814,
      "인": 815,
      "일": 816,
      "읽": 817,
      "잃": 818,
      "임": 819,
      "입": 820,
      "잇": 821,
      "있": 822,
      "잉": 823,
      "잊": 824,
      "자": 825,
      "작": 826,
      "잔": 827,
      "잘": 828,
      "잠": 829,
      "잡": 830,
      "잣": 831,
      "장": 832,
      "잦": 833,
      "재": 834,
      "쟁": 835,
      "저": 836,
      "적": 837,
      "전": 838,
      "절": 839,
      "젊": 840,
      "점": 841,
      "접": 842,
      "정": 843,
      "젖": 844,
      "제": 845,
      "젝": 846,
      "젠": 847,
      "젤": 848,
      "져": 849,
      "졌": 850,
      "조": 851,
      "족": 852,
      "존": 853,
      "졸": 854,
      "좀": 855,
      "좁": 856,
      "종": 857,
      "좋": 858,
      "좌": 859,
      "죄": 860,
      "죠": 861,
      "주": 862,
      "죽": 863,
      "준": 864,
      "줄": 865,
      "줌": 866,
      "중": 867,
      "줘": 868,
      "줬": 869,
      "쥐": 870,
      "쥔": 871,
      "즈": 872,
      "즉": 873,
      "즌": 874,
      "즐": 875,
      "즘": 876,
      "증": 877,
      "지": 878,
      "직": 879,
      "진": 880,
      "질": 881,
      "짐": 882,
      "집": 883,
      "짓": 884,
      "징": 885,
      "짙": 886,
      "짚": 887,
      "짜": 888,
      "짝": 889,
      "짧": 890,
      "째": 891,
      "쨌": 892,
      "쩌": 893,
      "쩍": 894,
      "쩐": 895,
      "쩔": 896,
      "쪽": 897,
      "쯤": 898,
      "찌": 899,
      "찍": 900,
      "찜": 901,
      "차": 902,
      "착": 903,
      "찬": 904,
      "찮": 905,
      "찰": 906,
      "참": 907,
      "창": 908,
      "찾": 909,
      "채": 910,
      "책": 911,
      "챌": 912,
      "챕": 913,
      "챗": 914,
      "처": 915,
      "척": 916,
      "천": 917,
      "철": 918,
      "첨": 919,
      "첫": 920,
      "청": 921,
      "체": 922,
      "쳐": 923,
      "쳤": 924,
      "초": 925,
      "촉": 926,
      "촌": 927,
      "총": 928,
      "촬": 929,
      "최": 930,
      "추": 931,
      "축": 932,
      "춘": 933,
      "출": 934,
      "춤": 935,
      "충": 936,
      "춰": 937,
      "췄": 938,
      "췌": 939,
      "취": 940,
      "츠": 941,
      "측": 942,
      "층": 943,
      "치": 944,
      "칙": 945,
      "친": 946,
      "칠": 947,
      "침": 948,
      "칩": 949,
      "칫": 950,
      "칭": 951,
      "카": 952,
      "칵": 953,
      "칸": 954,
      "칼": 955,
      "캐": 956,
      "캔": 957,
      "캘": 958,
      "캠": 959,
      "캡": 960,
      "커": 961,
      "컨": 962,
      "컬": 963,
      "컴": 964,
      "컸": 965,
      "케": 966,
      "켄": 967,
      "켈": 968,
      "켑": 969,
      "켓": 970,
      "켜": 971,
      "켰": 972,
      "코": 973,
      "콕": 974,
      "콘": 975,
      "콜": 976,
      "콤": 977,
      "콧": 978,
      "쿄": 979,
      "쿠": 980,
      "쿨": 981,
      "쿼": 982,
      "퀀": 983,
      "퀄": 984,
      "퀴": 985,
      "퀵": 986,
      "퀸": 987,
      "큐": 988,
      "크": 989,
      "큰": 990,
      "클": 991,
      "큼": 992,
      "키": 993,
      "킥": 994,
      "킨": 995,
      "킬": 996,
      "킷": 997,
      "킹": 998,
      "타": 999,
      "탁": 1000,
      "탄": 1001,
      "탈": 1002,
      "탐": 1003,
      "탑": 1004,
      "탓": 1005,
      "탕": 1006,
      "태": 1007,
      "택": 1008,
      "탠": 1009,
      "탤": 1010,
      "탬": 1011,
      "탱": 1012,
      "터": 1013,
      "턴": 1014,
      "털": 1015,
      "텀": 1016,
      "텅": 1017,
      "테": 1018,
      "텍": 1019,
      "텐": 1020,
      "텔": 1021,
      "템": 1022,
      "텼": 1023,
      "토": 1024,
      "톡": 1025,
      "톤": 1026,
      "톰": 1027,
      "톱": 1028,
      "통": 1029,
      "퇴": 1030,
      "투": 1031,
      "툴": 1032,
      "툼": 1033,
      "퉈": 1034,
      "튜": 1035,
      "튬": 1036,
      "트": 1037,
      "특": 1038,
      "튼": 1039,
      "틀": 1040,
      "티": 1041,
      "틱": 1042,
      "틴": 1043,
      "팀": 1044,
      "팁": 1045,
      "팅": 1046,
      "파": 1047,
      "팎": 1048,
      "판": 1049,
      "팔": 1050,
      "팜": 1051,
      "팟": 1052,
      "팡": 1053,
      "패": 1054,
      "팩": 1055,
      "팬": 1056,
      "팹": 1057,
      "팻": 1058,
      "퍼": 1059,
      "펀": 1060,
      "페": 1061,
      "펙": 1062,
      "펜": 1063,
      "펴": 1064,
      "편": 1065,
      "펼": 1066,
      "폄": 1067,
      "평": 1068,
      "폐": 1069,
      "포": 1070,
      "폭": 1071,
      "폰": 1072,
      "폴": 1073,
      "폼": 1074,
      "표": 1075,
      "푸": 1076,
      "푹": 1077,
      "푼": 1078,
      "풀": 1079,
      "품": 1080,
      "풍": 1081,
      "퓨": 1082,
      "프": 1083,
      "픈": 1084,
      "플": 1085,
      "피": 1086,
      "픽": 1087,
      "핀": 1088,
      "필": 1089,
      "핏": 1090,
      "핑": 1091,
      "하": 1092,
      "학": 1093,
      "한": 1094,
      "할": 1095,
      "함": 1096,
      "합": 1097,
      "항": 1098,
      "해": 1099,
      "핵": 1100,
      "햄": 1101,
      "했": 1102,
      "행": 1103,
      "향": 1104,
      "허": 1105,
      "헌": 1106,
      "헐": 1107,
      "험": 1108,
      "헛": 1109,
      "헤": 1110,
      "헨": 1111,
      "헬": 1112,
      "혀": 1113,
      "혁": 1114,
      "현": 1115,
      "혈": 1116,
      "혐": 1117,
      "협": 1118,
      "혔": 1119,
      "형": 1120,
      "혜": 1121,
      "호": 1122,
      "혹": 1123,
      "혼": 1124,
      "홀": 1125,
      "홈": 1126,
      "홍": 1127,
      "화": 1128,
      "확": 1129,
      "환": 1130,
      "활": 1131,
      "황": 1132,
      "회": 1133,
      "획": 1134,
      "횟": 1135,
      "효": 1136,
      "후": 1137,
      "훈": 1138,
      "훌": 1139,
      "훨": 1140,
      "훼": 1141,
      "휘": 1142,
      "휠": 1143,
      "휩": 1144,
      "휴": 1145,
      "흉": 1146,
      "흐": 1147,
      "흑": 1148,
      "흔": 1149,
      "흘": 1150,
      "흡": 1151,
      "흥": 1152,
      "희": 1153,
      "히": 1154,
      "힌": 1155,
      "힐": 1156,
      "힘": 1157,
      "ｍ": 1158,
      "･": 1159,
      "으로": 1160,
      "에서": 1161,
      "하는": 1162,
      "했다": 1163,
      "있다": 1164,
      "이다": 1165,
      "하고": 1166,
      "한다": 1167,
      "기술": 1168,
      "지능": 1169,
      "인공": 1170,
      "인공지능": 1171,
      "AI": 1172,
      "20": 1173,
      "교육": 1174,
      "00": 1175,
      "개발": 1176,
      "연구": 1177,
      "있는": 1178,
      "대학": 1179,
      "제공": 1180,
      "이라": 1181,
      "까지": 1182,
      "한국": 1183,
      "하기": 1184,
      "적으로": 1185,
      "지원": 1186,
      "하다": 1187,
      "마트": 1188,
      "산업": 1189,
      "학생": 1190,
      "스마트": 1191,
      "비스": 1192,
      "이터": 1193,
      "된다": 1194,
      "전형": 1195,
      "서비스": 1196,
      "대표": 1197,
      "사업": 1198,
      "19": 1199,
      "위해": 1200,
      "지난": 1201,
      "기업": 1202,
      "우리": 1203,
      "소득": 1204,
      "지만": 1205,
      "분야": 1206,
      "부터": 1207,
      "데이터": 1208,
      "에게": 1209,
      "가능": 1210,
      "들이": 1211,
      "학과": 1212,
      "대한": 1213,
      "미국": 1214,
      "적인": 1215,
      "통해": 1216,
      "사회": 1217,
      "위한": 1218,
      "활용": 1219,
      "정보": 1220,
      "면서": 1221,
      "미래": 1222,
      "시장": 1223,
      "관련": 1224,
      "교수": 1225,
      "서울": 1226,
      "세계": 1227,
      "었다": 1228,
      "도체": 1229,
      "반도체": 1230,
      "니다": 1231,
      "사람": 1232,
      "시간": 1233,
      "계획": 1234,
      "기반": 1235,
      "시스": 1236,
      "과학": 1237,
      "투자": 1238,
      ".\"": 1239,
      "과정": 1240,
      "프로": 1241,
      "하게": 1242,
      "로나": 1243,
      "코로나": 1244,
      "10": 1245,
      "됐다": 1246,
      "게임": 1247,
      "들은": 1248,
      "인도": 1249,
      "정책": 1250,
      "필요": 1251,
      "문제": 1252,
      "원을": 1253,
      "되는": 1254,
      "보다": 1255,
      "시스템": 1256,
      "센터": 1257,
      "이용": 1258,
      "전문": 1259,
      "혁신": 1260,
      "들어": 1261,
      "삼성": 1262,
      "202": 1263,
      "),": 1264,
      "국내": 1265,
      "지역": 1266,
      "대구": 1267,
      "평가": 1268,
      "이라고": 1269,
      "때문": 1270,
      "함께": 1271,
      "다는": 1272,
      "바이": 1273,
      "환경": 1274,
      "이상": 1275,
      "기본": 1276,
      "다양": 1277,
      "분석": 1278,
      "영상": 1279,
      "올해": 1280,
      "학습": 1281,
      "말했다": 1282,
      "도록": 1283,
      "코로나19": 1284,
      "라는": 1285,
      "아이": 1286,
      "이번": 1287,
      "정부": 1288,
      "지난해": 1289,
      "들의": 1290,
      "상황": 1291,
      "선발": 1292,
      "업체": 1293,
      "에는": 1294,
      "운영": 1295,
      "융합": 1296,
      "인간": 1297,
      "해야": 1298,
      "다양한": 1299,
      "교과": 1300,
      "등을": 1301,
      "중개": 1302,
      "협력": 1303,
      "혔다": 1304,
      "000": 1305,
      "노동": 1306,
      "밝혔다": 1307,
      "자는": 1308,
      "자동": 1309,
      "관계": 1310,
      "모두": 1311,
      "GS": 1312,
      "것이": 1313,
      "것이다": 1314,
      "인재": 1315,
      "기술을": 1316,
      "30": 1317,
      "기능": 1318,
      "리는": 1319,
      "제도": 1320,
      "것으로": 1321,
      "국민": 1322,
      "기자": 1323,
      "시대": 1324,
      "았다": 1325,
      "전공": 1326,
      "채용": 1327,
      "에서는": 1328,
      "경쟁": 1329,
      "따라": 1330,
      "물류": 1331,
      "생각": 1332,
      "장은": 1333,
      "전자": 1334,
      "진행": 1335,
      "하면": 1336,
      "학교": 1337,
      "사용": 1338,
      "스트": 1339,
      "에도": 1340,
      "현대": 1341,
      "경제": 1342,
      "도시": 1343,
      "사진": 1344,
      "자리": 1345,
      "제품": 1346,
      "통신": 1347,
      "하며": 1348,
      "201": 1349,
      "강화": 1350,
      "구축": 1351,
      "디지": 1352,
      "모집": 1353,
      "빅데이터": 1354,
      "성을": 1355,
      "예측": 1356,
      "이런": 1357,
      "이를": 1358,
      "하지": 1359,
      "하지만": 1360,
      "기본소득": 1361,
      "대해": 1362,
      "력을": 1363,
      "발전": 1364,
      "설계": 1365,
      "스타": 1366,
      "콘텐": 1367,
      "학생부": 1368,
      "디지털": 1369,
      "콘텐츠": 1370,
      "국어": 1371,
      "신설": 1372,
      "어요": 1373,
      "없다": 1374,
      "자율": 1375,
      "공개": 1376,
      "국가": 1377,
      "금융": 1378,
      "기준": 1379,
      "뉴스": 1380,
      "복지": 1381,
      "구조": 1382,
      "그러": 1383,
      "명을": 1384,
      "모델": 1385,
      "새로": 1386,
      "인상": 1387,
      "자가": 1388,
      "전략": 1389,
      "최근": 1390,
      "연구원": 1391,
      "과학기술": 1392,
      "KT": 1393,
      "겠다": 1394,
      "대로": 1395,
      "들에게": 1396,
      "랫폼": 1397,
      "사는": 1398,
      "수준": 1399,
      "지는": 1400,
      "직원": 1401,
      "플랫폼": 1402,
      "서비스를": 1403,
      "CT": 1404,
      "들을": 1405,
      "라고": 1406,
      "예산": 1407,
      "대상": 1408,
      "되고": 1409,
      "세대": 1410,
      "시작": 1411,
      "이버": 1412,
      "이어": 1413,
      "정치": 1414,
      "주는": 1415,
      "특히": 1416,
      "현실": 1417,
      "결과": 1418,
      "경우": 1419,
      "고용": 1420,
      "규모": 1421,
      "는데": 1422,
      "등이": 1423,
      "로봇": 1424,
      "설명": 1425,
      "성과": 1426,
      "아니": 1427,
      "이나": 1428,
      "장을": 1429,
      "3년": 1430,
      "같은": 1431,
      "개선": 1432,
      "리고": 1433,
      "이에": 1434,
      "트업": 1435,
      "하면서": 1436,
      "물류센터": 1437,
      "스타트업": 1438,
      "공동": 1439,
      "국제": 1440,
      "동안": 1441,
      "르면": 1442,
      "만큼": 1443,
      "이미": 1444,
      "인식": 1445,
      "추진": 1446,
      "프트": 1447,
      "하여": 1448,
      "화를": 1449,
      "자동차": 1450,
      "가장": 1451,
      "공공": 1452,
      "라인": 1453,
      "리아": 1454,
      "소프트": 1455,
      "없는": 1456,
      "이스": 1457,
      "일자리": 1458,
      "정도": 1459,
      "종합": 1460,
      "주행": 1461,
      "첨단": 1462,
      "초음": 1463,
      "현재": 1464,
      "화질": 1465,
      "확대": 1466,
      "4차": 1467,
      "것은": 1468,
      "구성": 1469,
      "기도": 1470,
      "따르면": 1471,
      "사를": 1472,
      "알고": 1473,
      "에선": 1474,
      "위원": 1475,
      "중요": 1476,
      "지를": 1477,
      "참여": 1478,
      "효율": 1479,
      "한다는": 1480,
      "계획이다": 1481,
      "프로그": 1482,
      "새로운": 1483,
      "IT": 1484,
      "는다": 1485,
      "대통": 1486,
      "많이": 1487,
      "부동": 1488,
      "비용": 1489,
      "이고": 1490,
      "자를": 1491,
      "적용": 1492,
      "정확": 1493,
      "제조": 1494,
      "우리는": 1495,
      "가능하다": 1496,
      "대통령": 1497,
      "an": 1498,
      "가지": 1499,
      "기관": 1500,
      "내년": 1501,
      "대비": 1502,
      "도입": 1503,
      "드론": 1504,
      "만들어": 1505,
      "메타": 1506,
      "발표": 1507,
      "버스": 1508,
      "번째": 1509,
      "양성": 1510,
      "였다": 1511,
      "웨어": 1512,
      "위험": 1513,
      "있어": 1514,
      "주택": 1515,
      "중심": 1516,
      "포함": 1517,
      "핵심": 1518,
      "후보": 1519,
      "부동산": 1520,
      "11": 1521,
      "14": 1522,
      "100": 1523,
      "50": 1524,
      "그룹": 1525,
      "리즘": 1526,
      "반영": 1527,
      "생활": 1528,
      "예정": 1529,
      "우수": 1530,
      "이날": 1531,
      "인터": 1532,
      "자의": 1533,
      "전체": 1534,
      "증가": 1535,
      "캠퍼": 1536,
      "하나": 1537,
      "때문이다": 1538,
      "알고리즘": 1539,
      "메타버스": 1540,
      "캠퍼스": 1541,
      "13": 1542,
      "공항": 1543,
      "기에": 1544,
      "나라": 1545,
      "넘어": 1546,
      "다고": 1547,
      "다른": 1548,
      "대응": 1549,
      "변화": 1550,
      "선택": 1551,
      "성이": 1552,
      "시티": 1553,
      "어떤": 1554,
      "역량": 1555,
      "왔다": 1556,
      "이는": 1557,
      "이후": 1558,
      "때문에": 1559,
      "바이오": 1560,
      "프로그램": 1561,
      "%)": 1562,
      "강조": 1563,
      "극초음": 1564,
      "글로": 1565,
      "기존": 1566,
      "네이버": 1567,
      "명의": 1568,
      "요구": 1569,
      "원의": 1570,
      "인천": 1571,
      "졌다": 1572,
      "지금": 1573,
      "첫인상": 1574,
      "체계": 1575,
      "최대": 1576,
      "코리아": 1577,
      "학년": 1578,
      "전문가": 1579,
      "2022": 1580,
      "자율주행": 1581,
      "극초음속": 1582,
      "15": 1583,
      "18": 1584,
      "것을": 1585,
      "결정": 1586,
      "공정": 1587,
      "기를": 1588,
      "높은": 1589,
      "마련": 1590,
      "발생": 1591,
      "보고": 1592,
      "사가": 1593,
      "생산": 1594,
      "열린": 1595,
      "의미": 1596,
      "자인": 1597,
      "장이": 1598,
      "제를": 1599,
      "젝트": 1600,
      "최초": 1601,
      "태양": 1602,
      "화재": 1603,
      "가능한": 1604,
      "프로젝트": 1605,
      "ST": 1606,
      "가상": 1607,
      "교통": 1608,
      "디어": 1609,
      "리티": 1610,
      "만들": 1611,
      "많은": 1612,
      "모빌": 1613,
      "방식": 1614,
      "사이": 1615,
      "수료": 1616,
      "온라인": 1617,
      "외국어": 1618,
      "으며": 1619,
      "인증": 1620,
      "자체": 1621,
      "제로": 1622,
      "지고": 1623,
      "처럼": 1624,
      "치료": 1625,
      "회의": 1626,
      "효과": 1627,
      "200": 1628,
      "교육과정": 1629,
      "스마트시티": 1630,
      "글로벌": 1631,
      "모빌리티": 1632,
      "40": 1633,
      "경영": 1634,
      "관리": 1635,
      "그는": 1636,
      "금을": 1637,
      "남대": 1638,
      "떻게": 1639,
      "롯데": 1640,
      "방향": 1641,
      "부분": 1642,
      "수를": 1643,
      "수시": 1644,
      "어려": 1645,
      "어떻게": 1646,
      "위를": 1647,
      "은행": 1648,
      "의료": 1649,
      "있을": 1650,
      "있도록": 1651,
      "전국": 1652,
      "전기": 1653,
      "점을": 1654,
      "조건": 1655,
      "친환경": 1656,
      "대구시": 1657,
      "관계자는": 1658,
      "5년": 1659,
      "60": 1660,
      "om": 1661,
      "가는": 1662,
      "건설": 1663,
      "공간": 1664,
      "공학": 1665,
      "기회": 1666,
      "늘어": 1667,
      "단계": 1668,
      "등의": 1669,
      "리를": 1670,
      "면접": 1671,
      "명이": 1672,
      "서는": 1673,
      "선박": 1674,
      "성적": 1675,
      "소설": 1676,
      "없이": 1677,
      "연계": 1678,
      "우드": 1679,
      "이뤄": 1680,
      "있게": 1681,
      "제시": 1682,
      "좋은": 1683,
      "창업": 1684,
      "청년": 1685,
      "최고": 1686,
      "쿠팡": 1687,
      "테크": 1688,
      "해결": 1689,
      "에서도": 1690,
      "대표는": 1691,
      "그러나": 1692,
      "인천공항": 1693,
      "가치": 1694,
      "감염": 1695,
      "거래": 1696,
      "공유": 1697,
      "그래": 1698,
      "기가": 1699,
      "기대": 1700,
      "기초": 1701,
      "나온": 1702,
      "단어": 1703,
      "도가": 1704,
      "등에": 1705,
      "러스": 1706,
      "렇게": 1707,
      "맞춤": 1708,
      "모든": 1709,
      "목표": 1710,
      "방법": 1711,
      "백화": 1712,
      "부회": 1713,
      "비롯": 1714,
      "상을": 1715,
      "으면": 1716,
      "이제": 1717,
      "일본": 1718,
      "중국": 1719,
      "진단": 1720,
      "찾아": 1721,
      "평균": 1722,
      "있다는": 1723,
      "개발한": 1724,
      "이라며": 1725,
      "학생부교과": 1726,
      "1년": 1727,
      "그리고": 1728,
      "기는": 1729,
      "능력": 1730,
      "대출": 1731,
      "등급": 1732,
      "라우드": 1733,
      "사일": 1734,
      "성장": 1735,
      "세종": 1736,
      "세포": 1737,
      "수수료": 1738,
      "않고": 1739,
      "업계": 1740,
      "영국": 1741,
      "운데": 1742,
      "위터": 1743,
      "윤리": 1744,
      "이션": 1745,
      "이유": 1746,
      "임대": 1747,
      "전망": 1748,
      "참석": 1749,
      "통합": 1750,
      "트위터": 1751,
      "포츠": 1752,
      "혜택": 1753,
      "화된": 1754,
      "확보": 1755,
      "교육부": 1756,
      "산업혁": 1757,
      "스마트폰": 1758,
      "대표가": 1759,
      "활용한": 1760,
      "정보통신": 1761,
      "필요한": 1762,
      "삼성전자": 1763,
      "선발한다": 1764,
      "아니라": 1765,
      "소프트웨어": 1766,
      "예정이다": 1767,
      "백화점": 1768,
      "25": 1769,
      "6일": 1770,
      "8년": 1771,
      "NS": 1772,
      "bo": 1773,
      "com": 1774,
      "en": 1775,
      "가운데": 1776,
      "드는": 1777,
      "로보": 1778,
      "먼트": 1779,
      "모습": 1780,
      "물론": 1781,
      "미사일": 1782,
      "받은": 1783,
      "받았다": 1784,
      "방위": 1785,
      "보유": 1786,
      "보인": 1787,
      "본부": 1788,
      "성공": 1789,
      "쉽게": 1790,
      "아니다": 1791,
      "애플": 1792,
      "어렵": 1793,
      "원이": 1794,
      "이었다": 1795,
      "인력": 1796,
      "인이": 1797,
      "일보": 1798,
      "작업": 1799,
      "장기": 1800,
      "전지": 1801,
      "제작": 1802,
      "주장": 1803,
      "준비": 1804,
      "지식": 1805,
      "직접": 1806,
      "집중": 1807,
      "청소": 1808,
      "총괄": 1809,
      "최적": 1810,
      "출시": 1811,
      "하겠다": 1812,
      "해당": 1813,
      "했다고": 1814,
      "한다고": 1815,
      "연구소": 1816,
      "이라는": 1817,
      "한국일보": 1818,
      "아이폰": 1819,
      ")’": 1820,
      "2일": 1821,
      "70": 1822,
      "il": 1823,
      "ko": 1824,
      "공학과": 1825,
      "국회": 1826,
      "그런": 1827,
      "대선": 1828,
      "대화": 1829,
      "도를": 1830,
      "리가": 1831,
      "병원": 1832,
      "성능": 1833,
      "소개": 1834,
      "소비": 1835,
      "신규": 1836,
      "아닌": 1837,
      "안전": 1838,
      "않은": 1839,
      "앞으로": 1840,
      "연합": 1841,
      "영어": 1842,
      "유기": 1843,
      "유지": 1844,
      "이해": 1845,
      "자료": 1846,
      "전환": 1847,
      "전히": 1848,
      "조성": 1849,
      "확인": 1850,
      "회사": 1851,
      "기술이": 1852,
      "전형은": 1853,
      "서울대": 1854,
      "계획을": 1855,
      "바이러스": 1856,
      "국민의": 1857,
      "학생부종합": 1858,
      "위원회": 1859,
      "맞춤형": 1860,
      "2개": 1861,
      "IST": 1862,
      "han": 1863,
      "고교": 1864,
      "구현": 1865,
      "나오": 1866,
      "대신": 1867,
      "또한": 1868,
      "뛰어": 1869,
      "러닝": 1870,
      "런스": 1871,
      "레이": 1872,
      "려면": 1873,
      "면역": 1874,
      "볼보": 1875,
      "비전": 1876,
      "선정": 1877,
      "실험": 1878,
      "안정": 1879,
      "음성": 1880,
      "이지": 1881,
      "적극": 1882,
      "점에서": 1883,
      "제가": 1884,
      "제약": 1885,
      "조선": 1886,
      "졸업": 1887,
      "지속": 1888,
      "취업": 1889,
      "클라우드": 1890,
      "특성": 1891,
      "합니다": 1892,
      "행정": 1893,
      "향후": 1894,
      "협약": 1895,
      "하는데": 1896,
      "데이터를": 1897,
      "인터넷": 1898,
      "산업혁명": 1899,
      "청소년": 1900,
      ")'": 1901,
      "16": 1902,
      "80": 1903,
      "9단": 1904,
      "RI": 1905,
      "ea": 1906,
      "kil": 1907,
      "okil": 1908,
      "’,": 1909,
      "가까": 1910,
      "것도": 1911,
      "결국": 1912,
      "경험": 1913,
      "고려": 1914,
      "논술": 1915,
      "대는": 1916,
      "더욱": 1917,
      "목소": 1918,
      "문을": 1919,
      "바로": 1920,
      "박사": 1921,
      "배우": 1922,
      "밸런스": 1923,
      "보장": 1924,
      "부가": 1925,
      "설립": 1926,
      "실시간": 1927,
      "역할": 1928,
      "유치": 1929,
      "유해": 1930,
      "이동": 1931,
      "이며": 1932,
      "이전": 1933,
      "인물": 1934,
      "인먼트": 1935,
      "일반": 1936,
      "자에게": 1937,
      "제는": 1938,
      "조직": 1939,
      "주요": 1940,
      "지도": 1941,
      "진다": 1942,
      "진압": 1943,
      "차량": 1944,
      "컴퓨": 1945,
      "테인먼트": 1946,
      "편성": 1947,
      "포털": 1948,
      "항공": 1949,
      "해서": 1950,
      "했고": 1951,
      "했던": 1952,
      "했는데": 1953,
      "있다고": 1954,
      "인공지능이": 1955,
      "교육청": 1956,
      "스마트제조": 1957,
      "사람이": 1958,
      "필요하다": 1959,
      "2018년": 1960,
      "강조했다": 1961,
      "kookil": 1962,
      "hankookil": 1963,
      "컴퓨터": 1964,
      "hankookilbo": 1965,
      "300": 1966,
      "개념": 1967,
      "개인": 1968,
      "거나": 1969,
      "거쳐": 1970,
      "계열": 1971,
      "근무": 1972,
      "기계": 1973,
      "기록": 1974,
      "나는": 1975,
      "너지": 1976,
      "다가": 1977,
      "디자인": 1978,
      "루션": 1979,
      "르는": 1980,
      "맞춰": 1981,
      "무엇": 1982,
      "밖에": 1983,
      "벤처": 1984,
      "보니": 1985,
      "보여": 1986,
      "사와": 1987,
      "사에서": 1988,
      "스크": 1989,
      "시설": 1990,
      "시연": 1991,
      "언급": 1992,
      "여러": 1993,
      "영역": 1994,
      "이야": 1995,
      "이자": 1996,
      "일을": 1997,
      "있었다": 1998,
      "자격": 1999,
      "자신": 2000,
      "자들이": 2001,
      "자들은": 2002,
      "전했다": 2003,
      "존재": 2004,
      "주도": 2005,
      "차세대": 2006,
      "처음": 2007,
      "추천": 2008,
      "테스트": 2009,
      "토지": 2010,
      "파악": 2011,
      "파트": 2012,
      "폴리": 2013,
      "하도록": 2014,
      "사업을": 2015,
      "우리나라": 2016,
      "분야에서": 2017,
      "반도체를": 2018,
      "시스템을": 2019,
      "정부는": 2020,
      "현대차": 2021,
      "모델을": 2022,
      "대상으로": 2023,
      "그래서": 2024,
      "나온다": 2025,
      "혜택을": 2026,
      "보인다": 2027,
      "2년": 2028,
      "4년": 2029,
      "6년": 2030,
      "LG": 2031,
      "SW": 2032,
      "UN": 2033,
      "ol": 2034,
      "가진": 2035,
      "거주": 2036,
      "고민": 2037,
      "과목": 2038,
      "국토": 2039,
      "다운": 2040,
      "담회": 2041,
      "두고": 2042,
      "드로": 2043,
      "들과": 2044,
      "들도": 2045,
      "력이": 2046,
      "렸다": 2047,
      "마다": 2048,
      "먼저": 2049,
      "문화": 2050,
      "미중": 2051,
      "바탕": 2052,
      "반응": 2053,
      "배송": 2054,
      "별로": 2055,
      "보는": 2056,
      "보면": 2057,
      "상대": 2058,
      "선도": 2059,
      "설정": 2060,
      "셧다운": 2061,
      "솔루션": 2062,
      "수도": 2063,
      "수록": 2064,
      "수상": 2065,
      "스윙": 2066,
      "시에": 2067,
      "신입": 2068,
      "신종": 2069,
      "실제": 2070,
      "안내": 2071,
      "안보": 2072,
      "안을": 2073,
      "연결": 2074,
      "원은": 2075,
      "인지": 2076,
      "인포": 2077,
      "일정": 2078,
      "작동": 2079,
      "작용": 2080,
      "조사": 2081,
      "주의": 2082,
      "최저": 2083,
      "패권": 2084,
      "페이스": 2085,
      "형태": 2086,
      "AI가": 2087,
      "사업에": 2088,
      "기업의": 2089,
      "활용해": 2090,
      "코로나바이러스": 2091,
      "000만": 2092,
      "3년간": 2093,
      "정도로": 2094,
      "학년도": 2095,
      "최초로": 2096,
      "감염증": 2097,
      "임대주택": 2098,
      "학생부종합전형": 2099,
      "인포테인먼트": 2100,
      "1만": 2101,
      "23": 2102,
      "24": 2103,
      "3개": 2104,
      "7일": 2105,
      "SK": 2106,
      "검사": 2107,
      "다르": 2108,
      "당시": 2109,
      "대기업": 2110,
      "등록": 2111,
      "따른": 2112,
      "롭게": 2113,
      "른다": 2114,
      "리로": 2115,
      "만에": 2116,
      "뱅크": 2117,
      "보건": 2118,
      "부문": 2119,
      "부산": 2120,
      "사고": 2121,
      "수가": 2122,
      "수능": 2123,
      "수요": 2124,
      "수행": 2125,
      "시아": 2126,
      "시키": 2127,
      "시제품": 2128,
      "신용": 2129,
      "신형": 2130,
      "신세계": 2131,
      "실에서": 2132,
      "어로": 2133,
      "얼마": 2134,
      "었던": 2135,
      "에어": 2136,
      "에너지": 2137,
      "역시": 2138,
      "예상": 2139,
      "왼쪽": 2140,
      "이렇게": 2141,
      "인가": 2142,
      "있고": 2143,
      "자주": 2144,
      "장비": 2145,
      "장의": 2146,
      "적이": 2147,
      "주목": 2148,
      "주차": 2149,
      "중소": 2150,
      "책임": 2151,
      "컴퍼": 2152,
      "크게": 2153,
      "토론": 2154,
      "하이": 2155,
      "해외": 2156,
      "했어요": 2157,
      "기술과": 2158,
      "기술의": 2159,
      "인공지능을": 2160,
      "하기로": 2161,
      "스마트도시": 2162,
      "학과를": 2163,
      "미국이": 2164,
      "시장에": 2165,
      "삼성은": 2166,
      "2021": 2167,
      "정부가": 2168,
      "성과를": 2169,
      "이미지": 2170,
      "이스포츠": 2171,
      "중요한": 2172,
      "14일": 2173,
      "수시모집": 2174,
      "로보틱": 2175,
      "UNIST": 2176,
      "컴퍼니": 2177,
      "%),": 2178,
      "..": 2179,
      "21": 2180,
      "AA": 2181,
      "PD": 2182,
      "in": 2183,
      "ww": 2184,
      "건을": 2185,
      "겠다는": 2186,
      "경선": 2187,
      "고도": 2188,
      "관심": 2189,
      "관영": 2190,
      "규제": 2191,
      "균형": 2192,
      "기로": 2193,
      "기획": 2194,
      "김관영": 2195,
      "나가": 2196,
      "내는": 2197,
      "내용": 2198,
      "녹내": 2199,
      "누구": 2200,
      "단순": 2201,
      "대전": 2202,
      "도로": 2203,
      "도약": 2204,
      "독일": 2205,
      "되어": 2206,
      "되면서": 2207,
      "력기준": 2208,
      "리벨": 2209,
      "매우": 2210,
      "무기": 2211,
      "미디어": 2212,
      "민주": 2213,
      "받아": 2214,
      "방사": 2215,
      "보급": 2216,
      "보호": 2217,
      "본다": 2218,
      "부품": 2219,
      "세를": 2220,
      "스로": 2221,
      "스피": 2222,
      "스스로": 2223,
      "시는": 2224,
      "신호": 2225,
      "아직": 2226,
      "아시아": 2227,
      "않아": 2228,
      "언론": 2229,
      "언어": 2230,
      "업무": 2231,
      "와의": 2232,
      "워크": 2233,
      "이란": 2234,
      "이크": 2235,
      "인을": 2236,
      "인프": 2237,
      "입학": 2238,
      "입니다": 2239,
      "전경": 2240,
      "접근": 2241,
      "중구": 2242,
      "지적": 2243,
      "지점": 2244,
      "창원": 2245,
      "총장": 2246,
      "클럽": 2247,
      "투입": 2248,
      "페트": 2249,
      "편집": 2250,
      "폐지": 2251,
      "하루": 2252,
      "학력기준": 2253,
      "해요": 2254,
      "화학": 2255,
      "인공지능과": 2256,
      "2019": 2257,
      "연구개발": 2258,
      "대학교": 2259,
      "제공하는": 2260,
      "교수는": 2261,
      "과정에서": 2262,
      "인도에서": 2263,
      "문제가": 2264,
      "이용해": 2265,
      "이상의": 2266,
      "영상을": 2267,
      "비용을": 2268,
      "2022학년도": 2269,
      "태양전지": 2270,
      "어려운": 2271,
      "전기차": 2272,
      "어렵다": 2273,
      "그런데": 2274,
      "볼보자동차": 2275,
      "바탕으로": 2276,
      "최저학력기준": 2277,
      "보건의료": 2278,
      "'(": 2279,
      "1일": 2280,
      "90": 2281,
      "on": 2282,
      "각종": 2283,
      "강한": 2284,
      "갖고": 2285,
      "개월": 2286,
      "개편": 2287,
      "개혁": 2288,
      "검증": 2289,
      "게이션": 2290,
      "경기": 2291,
      "고객": 2292,
      "공부": 2293,
      "과거": 2294,
      "군사": 2295,
      "기간": 2296,
      "내고": 2297,
      "내놓": 2298,
      "내비": 2299,
      "높다": 2300,
      "달리": 2301,
      "덕분": 2302,
      "도움": 2303,
      "도전": 2304,
      "랜드": 2305,
      "리적": 2306,
      "머신": 2307,
      "메라": 2308,
      "모니": 2309,
      "무리": 2310,
      "무선": 2311,
      "민국": 2312,
      "박스": 2313,
      "발굴": 2314,
      "발언": 2315,
      "방역": 2316,
      "본격": 2317,
      "부담": 2318,
      "불어": 2319,
      "서류": 2320,
      "섰다": 2321,
      "세가": 2322,
      "소방": 2323,
      "수는": 2324,
      "수성": 2325,
      "수학": 2326,
      "신한": 2327,
      "씨는": 2328,
      "안에": 2329,
      "에픽": 2330,
      "여성": 2331,
      "여기에": 2332,
      "역대": 2333,
      "외교": 2334,
      "우선": 2335,
      "위치": 2336,
      "으니": 2337,
      "이배": 2338,
      "이준": 2339,
      "입장": 2340,
      "자산": 2341,
      "재직": 2342,
      "전통": 2343,
      "정의": 2344,
      "정해": 2345,
      "제기": 2346,
      "조세": 2347,
      "주체": 2348,
      "중이다": 2349,
      "지급": 2350,
      "지사는": 2351,
      "질환": 2352,
      "창의": 2353,
      "채이배": 2354,
      "체육": 2355,
      "촬영": 2356,
      "카메라": 2357,
      "터링": 2358,
      "한편": 2359,
      "행동": 2360,
      "향상": 2361,
      "현지": 2362,
      "확률": 2363,
      "확장": 2364,
      "활동": 2365,
      "희망": 2366,
      "히려": 2367,
      "있는지": 2368,
      "우리가": 2369,
      "가능성이": 2370,
      "대한민국": 2371,
      "활용할": 2372,
      "시장은": 2373,
      "반도체는": 2374,
      "이용한": 2375,
      "환경을": 2376,
      "이번에": 2377,
      "인간의": 2378,
      "기능을": 2379,
      "따라서": 2380,
      "콘텐츠를": 2381,
      "뉴스1": 2382,
      "결과를": 2383,
      "규모의": 2384,
      "설명했다": 2385,
      "중심으로": 2386,
      "효과가": 2387,
      "대구시교육청": 2388,
      "현대차그룹": 2389,
      "로보틱스": 2390,
      "인프라": 2391,
      "2019년": 2392,
      "내비게이션": 2393,
      "머신러닝": 2394,
      "이준석": 2395,
      "34": 2396,
      "3월": 2397,
      "4개": 2398,
      "9일": 2399,
      "C60": 2400,
      "ES": 2401,
      "ET": 2402,
      "XC60": 2403,
      "al": 2404,
      "er": 2405,
      "가정": 2406,
      "각각": 2407,
      "개최": 2408,
      "게티": 2409,
      "겨냥": 2410,
      "경남대": 2411,
      "고등": 2412,
      "공사": 2413,
      "과제": 2414,
      "김성": 2415,
      "나선": 2416,
      "너무": 2417,
      "노력": 2418,
      "논란": 2419,
      "늘리": 2420,
      "다시": 2421,
      "다음": 2422,
      "대를": 2423,
      "대면": 2424,
      "대부분": 2425,
      "데믹": 2426,
      "되지": 2427,
      "등으로": 2428,
      "떨어": 2429,
      "라이": 2430,
      "마음": 2431,
      "마케": 2432,
      "말을": 2433,
      "매년": 2434,
      "물질": 2435,
      "바꾸": 2436,
      "배출": 2437,
      "범죄": 2438,
      "부를": 2439,
      "부작용": 2440,
      "비중": 2441,
      "비해": 2442,
      "비행": 2443,
      "사실": 2444,
      "사전": 2445,
      "서다": 2446,
      "서도": 2447,
      "서를": 2448,
      "선거": 2449,
      "설치": 2450,
      "성에": 2451,
      "세금": 2452,
      "쇼핑": 2453,
      "수업": 2454,
      "수밖에": 2455,
      "습니다": 2456,
      "시행": 2457,
      "아주": 2458,
      "안에서": 2459,
      "않는": 2460,
      "않는다": 2461,
      "알려": 2462,
      "에요": 2463,
      "여야": 2464,
      "여전히": 2465,
      "연간": 2466,
      "연봉": 2467,
      "오는": 2468,
      "오히려": 2469,
      "올라": 2470,
      "완료": 2471,
      "요소": 2472,
      "움직": 2473,
      "원으로": 2474,
      "이지만": 2475,
      "인구": 2476,
      "인데": 2477,
      "인텔": 2478,
      "일은": 2479,
      "자연": 2480,
      "장학": 2481,
      "재단": 2482,
      "전달": 2483,
      "점이다": 2484,
      "조금": 2485,
      "준다": 2486,
      "중앙": 2487,
      "지지": 2488,
      "체부": 2489,
      "출간": 2490,
      "충분": 2491,
      "충전": 2492,
      "취득": 2493,
      "카카": 2494,
      "캐피": 2495,
      "탄소": 2496,
      "특정": 2497,
      "특허": 2498,
      "팀은": 2499,
      "판단": 2500,
      "판매": 2501,
      "팬데믹": 2502,
      "폐암": 2503,
      "학업": 2504,
      "항암": 2505,
      "해도": 2506,
      "현장": 2507,
      "협업": 2508,
      "협의": 2509,
      "화면": 2510,
      "확산": 2511,
      "으로는": 2512,
      "지능형": 2513,
      "교육을": 2514,
      "개발했다": 2515,
      "있는데": 2516,
      "대학원": 2517,
      "지원하는": 2518,
      "지원하고": 2519,
      "위해서는": 2520,
      "소득이": 2521,
      "정보를": 2522,
      "미래를": 2523,
      "시장을": 2524,
      "사람의": 2525,
      "과정을": 2526,
      "정책을": 2527,
      "아이디어": 2528,
      "융합전공": 2529,
      "000억": 2530,
      "기능이": 2531,
      "제도를": 2532,
      "모집인": 2533,
      "수준의": 2534,
      "플랫폼을": 2535,
      "공공임대주택": 2536,
      "세종시": 2537,
      "아이폰13": 2538,
      "국민의힘": 2539,
      "특성화": 2540,
      "역할을": 2541,
      "폴리텍": 2542,
      "이미지뱅크": 2543,
      "모니터링": 2544,
      "ESG": 2545,
      "게티이미지뱅크": 2546,
      "김성식": 2547,
      "마케팅": 2548,
      "17": 2549,
      "1억": 2550,
      "22": 2551,
      "500": 2552,
      "6월": 2553,
      "BM": 2554,
      "CNS": 2555,
      "DP": 2556,
      "GDP": 2557,
      "IAA": 2558,
      "MRI": 2559,
      "SNS": 2560,
      "ac": 2561,
      "ht": 2562,
      "간담회": 2563,
      "갖추": 2564,
      "건물": 2565,
      "결합": 2566,
      "경북": 2567,
      "계를": 2568,
      "고가": 2569,
      "고화질": 2570,
      "골프": 2571,
      "공급": 2572,
      "공인": 2573,
      "광고": 2574,
      "구간": 2575,
      "그동안": 2576,
      "긍정": 2577,
      "기여": 2578,
      "년대": 2579,
      "노인": 2580,
      "높아": 2581,
      "대체": 2582,
      "대화를": 2583,
      "도는": 2584,
      "동시에": 2585,
      "되기": 2586,
      "되면": 2587,
      "둘러": 2588,
      "드러": 2589,
      "드를": 2590,
      "등장": 2591,
      "디스": 2592,
      "또는": 2593,
      "리온": 2594,
      "만드는": 2595,
      "모터": 2596,
      "민간": 2597,
      "바람": 2598,
      "반박": 2599,
      "받는": 2600,
      "받았": 2601,
      "방송": 2602,
      "방을": 2603,
      "보자": 2604,
      "복수": 2605,
      "복합": 2606,
      "봤다": 2607,
      "사내": 2608,
      "사라": 2609,
      "사례": 2610,
      "사에": 2611,
      "생을": 2612,
      "선보": 2613,
      "성은": 2614,
      "세는": 2615,
      "소재": 2616,
      "속에서": 2617,
      "수의": 2618,
      "시각": 2619,
      "신청": 2620,
      "아가": 2621,
      "아마": 2622,
      "아파트": 2623,
      "얘기": 2624,
      "언스": 2625,
      "없어": 2626,
      "엘리": 2627,
      "연세대": 2628,
      "오후": 2629,
      "용인": 2630,
      "우려": 2631,
      "원에서": 2632,
      "원하는": 2633,
      "유럽": 2634,
      "유명": 2635,
      "율이": 2636,
      "의원": 2637,
      "이가": 2638,
      "이내": 2639,
      "이러": 2640,
      "이사": 2641,
      "이수": 2642,
      "이와": 2643,
      "이트": 2644,
      "인류": 2645,
      "인문": 2646,
      "인하": 2647,
      "인력을": 2648,
      "일까": 2649,
      "임상": 2650,
      "임을": 2651,
      "작은": 2652,
      "재료": 2653,
      "전년": 2654,
      "전화": 2655,
      "점검": 2656,
      "점은": 2657,
      "접목": 2658,
      "정이": 2659,
      "제어": 2660,
      "제한": 2661,
      "제대로": 2662,
      "조명": 2663,
      "주로": 2664,
      "중인": 2665,
      "진로": 2666,
      "진욱": 2667,
      "진흥": 2668,
      "차를": 2669,
      "총리": 2670,
      "총리는": 2671,
      "최소": 2672,
      "카드": 2673,
      "태평": 2674,
      "통한": 2675,
      "투명": 2676,
      "특징": 2677,
      "폐페트": 2678,
      "폭력": 2679,
      "플레이": 2680,
      "핀테크": 2681,
      "필수": 2682,
      "하려": 2683,
      "학자": 2684,
      "학위를": 2685,
      "합성": 2686,
      "합의": 2687,
      "호주": 2688,
      "환자의": 2689,
      "회복": 2690,
      "힘들": 2691,
      "AI를": 2692,
      "AI의": 2693,
      "20대": 2694,
      "개발에": 2695,
      "한국뇌": 2696,
      "하기도": 2697,
      "지원을": 2698,
      "지난달": 2699,
      "기업에": 2700,
      "우리의": 2701,
      "분야의": 2702,
      "학과는": 2703,
      "사회의": 2704,
      "기반으로": 2705,
      "게임시간": 2706,
      "국내외": 2707,
      "상황에서": 2708,
      "업체는": 2709,
      "모두를": 2710,
      "GS그룹": 2711,
      "시대가": 2712,
      "구축해": 2713,
      "기본소득은": 2714,
      "전략을": 2715,
      "이에요": 2716,
      "정확히": 2717,
      "인터뷰": 2718,
      "지금부터": 2719,
      "체계를": 2720,
      "태양광": 2721,
      "화재진압": 2722,
      "만들고": 2723,
      "방식으로": 2724,
      "사이트": 2725,
      "학생부교과전형": 2726,
      "최적화": 2727,
      "연합뉴스": 2728,
      "9단은": 2729,
      "가까운": 2730,
      "이야기": 2731,
      "리벨리온": 2732,
      "편집자주": 2733,
      "볼보자동차코리아": 2734,
      "덕분에": 2735,
      "카카오": 2736,
      "캐피탈": 2737,
      "태평양": 2738,
      "12": 2739,
      "1인": 2740,
      "1조": 2741,
      "26일": 2742,
      "4만": 2743,
      "7월": 2744,
      "8개": 2745,
      "8월": 2746,
      "CC": 2747,
      "CE": 2748,
      "CS": 2749,
      "DL": 2750,
      "L1": 2751,
      "Ne": 2752,
      "ic": 2753,
      "가구": 2754,
      "가르": 2755,
      "가져": 2756,
      "감한": 2757,
      "갖춘": 2758,
      "같이": 2759,
      "계속": 2760,
      "과의": 2761,
      "관점": 2762,
      "교사": 2763,
      "구분": 2764,
      "구체": 2765,
      "기념": 2766,
      "기법": 2767,
      "끌어": 2768,
      "내가": 2769,
      "내부": 2770,
      "넘는": 2771,
      "녹취": 2772,
      "논의": 2773,
      "누군": 2774,
      "담당": 2775,
      "대가": 2776,
      "대폰": 2777,
      "대형": 2778,
      "대에서": 2779,
      "더불어": 2780,
      "돈을": 2781,
      "되며": 2782,
      "되었다": 2783,
      "드시": 2784,
      "등과": 2785,
      "등이다": 2786,
      "뜻이다": 2787,
      "라도": 2788,
      "린다": 2789,
      "만든": 2790,
      "만의": 2791,
      "맥스": 2792,
      "모바": 2793,
      "모여": 2794,
      "몰입": 2795,
      "문체부": 2796,
      "민원": 2797,
      "바뀌": 2798,
      "반기": 2799,
      "반려": 2800,
      "반드시": 2801,
      "방침": 2802,
      "백신": 2803,
      "법인": 2804,
      "베이": 2805,
      "베이터": 2806,
      "변상": 2807,
      "보기": 2808,
      "보수": 2809,
      "비교": 2810,
      "빠르": 2811,
      "빠른": 2812,
      "사무": 2813,
      "상담": 2814,
      "상용": 2815,
      "상위": 2816,
      "상품": 2817,
      "생명": 2818,
      "속도": 2819,
      "손을": 2820,
      "수치": 2821,
      "신약": 2822,
      "실패": 2823,
      "심화": 2824,
      "않았": 2825,
      "않을": 2826,
      "알아": 2827,
      "역사": 2828,
      "영향": 2829,
      "오래": 2830,
      "울산": 2831,
      "유사": 2832,
      "육성": 2833,
      "이슈": 2834,
      "일단": 2835,
      "일하는": 2836,
      "있죠": 2837,
      "있지만": 2838,
      "있어요": 2839,
      "자기": 2840,
      "자로": 2841,
      "자들의": 2842,
      "재정": 2843,
      "재현": 2844,
      "재활용": 2845,
      "전에": 2846,
      "전쟁": 2847,
      "전파": 2848,
      "접수": 2849,
      "정리": 2850,
      "제와": 2851,
      "주제로": 2852,
      "줄어": 2853,
      "중에": 2854,
      "진영": 2855,
      "참가": 2856,
      "창출": 2857,
      "처리": 2858,
      "체결": 2859,
      "최선": 2860,
      "최종": 2861,
      "추가": 2862,
      "치매": 2863,
      "탐색": 2864,
      "통계": 2865,
      "통화": 2866,
      "트루": 2867,
      "특별": 2868,
      "티드": 2869,
      "티브": 2870,
      "패스트": 2871,
      "표시": 2872,
      "프레": 2873,
      "하우": 2874,
      "하려면": 2875,
      "하겠다는": 2876,
      "합격": 2877,
      "확진": 2878,
      "환자": 2879,
      "회에": 2880,
      "휴대폰": 2881,
      "히어로": 2882,
      "한다면": 2883,
      "기술로": 2884,
      "기술은": 2885,
      "인공지능은": 2886,
      "인공지능의": 2887,
      "00억": 2888,
      "이라면": 2889,
      "지원할": 2890,
      "산업체": 2891,
      "학생들이": 2892,
      "된다는": 2893,
      "분야를": 2894,
      "분야에": 2895,
      "미국의": 2896,
      "교수가": 2897,
      "사람들이": 2898,
      "시간이": 2899,
      "기반의": 2900,
      "10일": 2901,
      "문제는": 2902,
      "문제를": 2903,
      "혁신을": 2904,
      "삼성의": 2905,
      "삼성이": 2906,
      "바이든": 2907,
      "분석해": 2908,
      "000여": 2909,
      "관계를": 2910,
      "사용하는": 2911,
      "현대카드": 2912,
      "2016년": 2913,
      "과학기술정보통신": 2914,
      "수준을": 2915,
      "화질이": 2916,
      "중요하다": 2917,
      "대통령이": 2918,
      "발표했다": 2919,
      "중심의": 2920,
      "포함한": 2921,
      "후보물질": 2922,
      "우수자": 2923,
      "2022년": 2924,
      "가상인물": 2925,
      "롯데백화점": 2926,
      "어려움": 2927,
      "건설청": 2928,
      "늘어난": 2929,
      "단어가": 2930,
      "부회장은": 2931,
      "비롯해": 2932,
      "ent": 2933,
      "청소년의": 2934,
      "밸런스히어로": 2935,
      "스마트제조융합전공": 2936,
      "24일": 2937,
      "신용등급": 2938,
      "얼마나": 2939,
      "민주당": 2940,
      "창원대": 2941,
      "보건의료정보": 2942,
      "수성구": 2943,
      "항암제": 2944,
      "엘리베이터": 2945,
      "녹취록": 2946,
      "변상일": 2947,
      "과학기술정보통신부": 2948,
      "2억": 2949,
      "3D": 2950,
      "3명": 2951,
      "3차": 2952,
      "31일": 2953,
      "4대": 2954,
      "5월": 2955,
      "7년": 2956,
      "7명": 2957,
      "8일": 2958,
      "AP": 2959,
      "CP": 2960,
      "CCT": 2961,
      "ON": 2962,
      "de": 2963,
      "ig": 2964,
      "ps": 2965,
      "rn": 2966,
      "ti": 2967,
      "’(": 2968,
      "감독": 2969,
      "감안": 2970,
      "감지": 2971,
      "강남": 2972,
      "같다": 2973,
      "개정": 2974,
      "것과": 2975,
      "경남": 2976,
      "계약": 2977,
      "공격": 2978,
      "과몰입": 2979,
      "광역": 2980,
      "광주": 2981,
      "교실": 2982,
      "국무": 2983,
      "국방": 2984,
      "권을": 2985,
      "규칙": 2986,
      "그림": 2987,
      "그만큼": 2988,
      "그렇게": 2989,
      "급증": 2990,
      "긴급": 2991,
      "김부": 2992,
      "나와": 2993,
      "나타": 2994,
      "나왔다": 2995,
      "나섰다": 2996,
      "났다": 2997,
      "내각": 2998,
      "네트": 2999,
      "놓고": 3000,
      "뉴시스": 3001,
      "늘린": 3002,
      "다면": 3003,
      "단독": 3004,
      "단위": 3005,
      "달라": 3006,
      "답을": 3007,
      "대의": 3008,
      "도구": 3009,
      "독자": 3010,
      "동물": 3011,
      "동의": 3012,
      "동탄": 3013,
      "두손": 3014,
      "라면": 3015,
      "랙박스": 3016,
      "리즈": 3017,
      "만원": 3018,
      "만이": 3019,
      "많아": 3020,
      "메이": 3021,
      "모아": 3022,
      "목적": 3023,
      "몰카": 3024,
      "문재": 3025,
      "바른": 3026,
      "박사는": 3027,
      "반면": 3028,
      "받게": 3029,
      "받을": 3030,
      "방안": 3031,
      "배달": 3032,
      "벌어": 3033,
      "변경": 3034,
      "보안": 3035,
      "부여": 3036,
      "부의": 3037,
      "분리": 3038,
      "불과": 3039,
      "블랙박스": 3040,
      "비를": 3041,
      "빨리": 3042,
      "사항": 3043,
      "상당": 3044,
      "상자": 3045,
      "생체": 3046,
      "서초": 3047,
      "석사": 3048,
      "선별": 3049,
      "세요": 3050,
      "셈이다": 3051,
      "소련": 3052,
      "소통": 3053,
      "속한": 3054,
      "수소": 3055,
      "스럽": 3056,
      "스를": 3057,
      "스포츠": 3058,
      "시나": 3059,
      "시야": 3060,
      "시험": 3061,
      "시리즈": 3062,
      "신진": 3063,
      "신기술": 3064,
      "실습": 3065,
      "실시": 3066,
      "실현": 3067,
      "심리": 3068,
      "아래": 3069,
      "안심": 3070,
      "않다": 3071,
      "압박": 3072,
      "앞서": 3073,
      "어디": 3074,
      "어야": 3075,
      "언제": 3076,
      "얼굴": 3077,
      "에만": 3078,
      "여론": 3079,
      "연락": 3080,
      "영덕": 3081,
      "영화": 3082,
      "오른": 3083,
      "오전": 3084,
      "오진욱": 3085,
      "완화": 3086,
      "완전히": 3087,
      "용역": 3088,
      "우저": 3089,
      "워드": 3090,
      "원티드": 3091,
      "웨이": 3092,
      "유도": 3093,
      "유통": 3094,
      "응용": 3095,
      "의도": 3096,
      "이기": 3097,
      "이드": 3098,
      "이들": 3099,
      "이앤": 3100,
      "이원": 3101,
      "이재": 3102,
      "인정": 3103,
      "인해": 3104,
      "일상": 3105,
      "입주": 3106,
      "있기": 3107,
      "있으며": 3108,
      "자본": 3109,
      "재미": 3110,
      "재산": 3111,
      "재학생": 3112,
      "저거": 3113,
      "저렴": 3114,
      "절감": 3115,
      "점점": 3116,
      "제습": 3117,
      "주력": 3118,
      "중국어": 3119,
      "지주": 3120,
      "지표": 3121,
      "지자체": 3122,
      "질병": 3123,
      "집을": 3124,
      "충남대": 3125,
      "치고": 3126,
      "친구": 3127,
      "카이": 3128,
      "탄두": 3129,
      "텔레": 3130,
      "트랙": 3131,
      "특수": 3132,
      "특화된": 3133,
      "파우저": 3134,
      "판을": 3135,
      "표준": 3136,
      "하자": 3137,
      "하죠": 3138,
      "하거나": 3139,
      "하반기": 3140,
      "합리적": 3141,
      "활성": 3142,
      "회를": 3143,
      "훨씬": 3144,
      "흐름": 3145,
      "20년": 3146,
      "교육과": 3147,
      "개발자": 3148,
      "연구팀은": 3149,
      "산업을": 3150,
      "스마트기": 3151,
      "전형으로": 3152,
      "미국과": 3153,
      "미국은": 3154,
      "미국에서": 3155,
      "사회를": 3156,
      "사회적": 3157,
      "서울시": 3158,
      "세계에서": 3159,
      "투자를": 3160,
      "투자해": 3161,
      "10억": 3162,
      "인도의": 3163,
      "필요가": 3164,
      "전문기자": 3165,
      "2025년": 3166,
      "평가를": 3167,
      "상황을": 3168,
      "융합대학": 3169,
      "인간과": 3170,
      "인간은": 3171,
      "인간이": 3172,
      "교과목": 3173,
      "협력을": 3174,
      "노동자": 3175,
      "30일": 3176,
      "제도가": 3177,
      "시대의": 3178,
      "경쟁력을": 3179,
      "생각해": 3180,
      "현대캐피탈": 3181,
      "경제학": 3182,
      "사진은": 3183,
      "국가가": 3184,
      "구조를": 3185,
      "직원들이": 3186,
      "시작한": 3187,
      "현실을": 3188,
      "설명이다": 3189,
      "일자리를": 3190,
      "드론이": 3191,
      "발표한": 3192,
      "있어서": 3193,
      "있어야": 3194,
      "알고리즘을": 3195,
      "메타버스가": 3196,
      "역량을": 3197,
      "프로그램을": 3198,
      "180": 3199,
      "가상현실": 3200,
      "교육과정을": 3201,
      "방향으로": 3202,
      "세포폐암": 3203,
      "25일": 3204,
      "모습을": 3205,
      "주장했다": 3206,
      "총괄은": 3207,
      "성능을": 3208,
      "자료를": 3209,
      "협약을": 3210,
      "배우한": 3211,
      "계열사": 3212,
      "국토보유": 3213,
      "반응을": 3214,
      "등록금": 3215,
      "시키는": 3216,
      "공인중개": 3217,
      "복수전공": 3218,
      "이러한": 3219,
      "한국뇌연구원": 3220,
      "DL이앤": 3221,
      "누군가": 3222,
      "모바일": 3223,
      "우수자전형": 3224,
      "CCTV": 3225,
      "김부겸": 3226,
      "네트워크": 3227,
      "두손컴퍼니": 3228,
      "문재인": 3229,
      "신진서": 3230,
      "%,": 3231,
      "',": 3232,
      "'.": 3233,
      "//": 3234,
      "1회": 3235,
      "1단계": 3236,
      "26": 3237,
      "2만": 3238,
      "2명": 3239,
      "27일": 3240,
      "46": 3241,
      "56": 3242,
      "5G": 3243,
      "5일": 3244,
      "95": 3245,
      "://": 3246,
      "CD": 3247,
      "CJ": 3248,
      "ECD": 3249,
      "GB": 3250,
      "ICT": 3251,
      "MB": 3252,
      "OECD": 3253,
      "PC": 3254,
      "PS": 3255,
      "Rea": 3256,
      "SM": 3257,
      "SKT": 3258,
      "TV": 3259,
      "VR": 3260,
      "ou": 3261,
      "ro": 3262,
      "st": 3263,
      "tu": 3264,
      "가격": 3265,
      "가고": 3266,
      "가짜": 3267,
      "감시": 3268,
      "감을": 3269,
      "강대": 3270,
      "개의": 3271,
      "거듭": 3272,
      "거리": 3273,
      "거울": 3274,
      "거의": 3275,
      "건의": 3276,
      "검토": 3277,
      "것인지": 3278,
      "견을": 3279,
      "겼다": 3280,
      "경고": 3281,
      "경기도": 3282,
      "계가": 3283,
      "고급": 3284,
      "고른": 3285,
      "고사": 3286,
      "고양": 3287,
      "고부가": 3288,
      "곳에": 3289,
      "공모": 3290,
      "공회의": 3291,
      "공비행": 3292,
      "과연": 3293,
      "관광": 3294,
      "관한": 3295,
      "굉장": 3296,
      "교양": 3297,
      "구상": 3298,
      "국립": 3299,
      "궁금": 3300,
      "권력": 3301,
      "그때": 3302,
      "극복": 3303,
      "금오": 3304,
      "기사": 3305,
      "김재현": 3306,
      "나갈": 3307,
      "나누": 3308,
      "나눠": 3309,
      "나서": 3310,
      "나올": 3311,
      "나의": 3312,
      "낮은": 3313,
      "냈다": 3314,
      "노이": 3315,
      "놀라": 3316,
      "뇌연구": 3317,
      "단지": 3318,
      "달성": 3319,
      "당신": 3320,
      "당연": 3321,
      "대안": 3322,
      "대책": 3323,
      "대회": 3324,
      "더라도": 3325,
      "덧붙": 3326,
      "데미": 3327,
      "도래": 3328,
      "들로": 3329,
      "들여": 3330,
      "등도": 3331,
      "라스": 3332,
      "량을": 3333,
      "로버": 3334,
      "로켓": 3335,
      "롤투": 3336,
      "리오": 3337,
      "리전": 3338,
      "마이크": 3339,
      "마무리": 3340,
      "만약": 3341,
      "말까지": 3342,
      "메시": 3343,
      "명예": 3344,
      "모리": 3345,
      "무슨": 3346,
      "반복": 3347,
      "방문": 3348,
      "배치": 3349,
      "배터": 3350,
      "보를": 3351,
      "복잡": 3352,
      "본사에서": 3353,
      "부에": 3354,
      "부족": 3355,
      "분배": 3356,
      "불편": 3357,
      "비소": 3358,
      "비대면": 3359,
      "사건": 3360,
      "사과": 3361,
      "사물": 3362,
      "사태": 3363,
      "사이버": 3364,
      "산층": 3365,
      "상이": 3366,
      "상공회의": 3367,
      "새롭게": 3368,
      "석열": 3369,
      "선진": 3370,
      "성분": 3371,
      "세로": 3372,
      "세와": 3373,
      "세금을": 3374,
      "수리": 3375,
      "수험": 3376,
      "쉽지": 3377,
      "스가": 3378,
      "스토": 3379,
      "스페이스": 3380,
      "슨인텔": 3381,
      "시민": 3382,
      "시술": 3383,
      "시킬": 3384,
      "신경": 3385,
      "신고": 3386,
      "신뢰": 3387,
      "실적": 3388,
      "실제로": 3389,
      "아카": 3390,
      "안마": 3391,
      "않았다": 3392,
      "앞두고": 3393,
      "액을": 3394,
      "앱을": 3395,
      "양성을": 3396,
      "없을": 3397,
      "엑스": 3398,
      "엔진": 3399,
      "여기": 3400,
      "여의도": 3401,
      "연정이": 3402,
      "였던": 3403,
      "예방": 3404,
      "오면": 3405,
      "오프": 3406,
      "온도": 3407,
      "올랐": 3408,
      "외부": 3409,
      "외에": 3410,
      "우위": 3411,
      "운전": 3412,
      "운항": 3413,
      "원에": 3414,
      "유니": 3415,
      "유행": 3416,
      "윤석열": 3417,
      "음악": 3418,
      "음을": 3419,
      "의사": 3420,
      "의혹": 3421,
      "이름": 3422,
      "이익": 3423,
      "이죠": 3424,
      "이것이": 3425,
      "이기도": 3426,
      "인수": 3427,
      "일관": 3428,
      "자유": 3429,
      "작가": 3430,
      "작년": 3431,
      "잘못": 3432,
      "잠재": 3433,
      "장과": 3434,
      "장면": 3435,
      "장으로": 3436,
      "재생": 3437,
      "재진": 3438,
      "저소득": 3439,
      "적이다": 3440,
      "전시": 3441,
      "전용": 3442,
      "전은": 3443,
      "전한": 3444,
      "전혀": 3445,
      "점으로": 3446,
      "정당": 3447,
      "정을": 3448,
      "제2": 3449,
      "제거": 3450,
      "제출": 3451,
      "조4": 3452,
      "조언": 3453,
      "조용": 3454,
      "조치": 3455,
      "조사를": 3456,
      "주지": 3457,
      "중산층": 3458,
      "지나": 3459,
      "지사": 3460,
      "지시": 3461,
      "직업": 3462,
      "진학": 3463,
      "진화": 3464,
      "집단": 3465,
      "찾는": 3466,
      "체가": 3467,
      "초기": 3468,
      "최신": 3469,
      "출범": 3470,
      "측면": 3471,
      "치안": 3472,
      "칼럼": 3473,
      "토트": 3474,
      "통과": 3475,
      "통제": 3476,
      "페이지": 3477,
      "포인": 3478,
      "표현": 3479,
      "플라스": 3480,
      "해석": 3481,
      "해소": 3482,
      "행복": 3483,
      "홈페이지": 3484,
      "회수": 3485,
      "획득": 3486,
      "훈련": 3487,
      "힘든": 3488,
      "으로만": 3489,
      "했다는": 3490,
      "2030": 3491,
      "교육의": 3492,
      "교육혁신": 3493,
      "개발과": 3494,
      "개발된": 3495,
      "개발을": 3496,
      "제공할": 3497,
      "제공한다": 3498,
      "한국은": 3499,
      "지원한다": 3500,
      "하다가": 3501,
      "대표의": 3502,
      "사업은": 3503,
      "우리와": 3504,
      "분야로": 3505,
      "대한상공회의": 3506,
      "정보와": 3507,
      "정보기술": 3508,
      "시장의": 3509,
      "시장이": 3510,
      "관련된": 3511,
      "투자와": 3512,
      "대구은행": 3513,
      "환경이": 3514,
      "영상분석": 3515,
      "아이오": 3516,
      "아이템": 3517,
      "지난해부터": 3518,
      "선발하며": 3519,
      "운영하는": 3520,
      "융합기술": 3521,
      "인간을": 3522,
      "교과성적": 3523,
      "중개인": 3524,
      "GS건설": 3525,
      "인재를": 3526,
      "기능은": 3527,
      "기자회": 3528,
      "시대에": 3529,
      "전공을": 3530,
      "경쟁이": 3531,
      "진행하고": 3532,
      "사용할": 3533,
      "사진을": 3534,
      "모집한다": 3535,
      "대해서도": 3536,
      "콘텐츠가": 3537,
      "KT가": 3538,
      "KT는": 3539,
      "CTO": 3540,
      "정치권": 3541,
      "로봇이": 3542,
      "스타트업이": 3543,
      "초음파": 3544,
      "4차산업혁명": 3545,
      "구성돼": 3546,
      "정확한": 3547,
      "포함해": 3548,
      "후보가": 3549,
      "알고리즘의": 3550,
      "대응하기": 3551,
      "변화에": 3552,
      "첫인상을": 3553,
      "사이언스": 3554,
      "글로벌선진": 3555,
      "조건을": 3556,
      "제시하는": 3557,
      "청년희망": 3558,
      "가치가": 3559,
      "비롯한": 3560,
      "이유는": 3561,
      "전망이다": 3562,
      "참석해": 3563,
      "장기화": 3564,
      "제작소": 3565,
      "안전한": 3566,
      "확인할": 3567,
      "뛰어넘": 3568,
      "음성인식": 3569,
      "경험을": 3570,
      "논술전형": 3571,
      "목소리로": 3572,
      "조직을": 3573,
      "편성했다": 3574,
      "항공산업": 3575,
      "300억": 3576,
      "기계공학": 3577,
      "자격증": 3578,
      "처음으로": 3579,
      "olf": 3580,
      "셧다운제": 3581,
      "페이스북": 3582,
      "SK텔레": 3583,
      "수능최저학력기준": 3584,
      "왼쪽부터": 3585,
      "중소기업": 3586,
      "...": 3587,
      "ing": 3588,
      "www": 3589,
      "고도화": 3590,
      "누구나": 3591,
      "ETRI": 3592,
      "겨냥한": 3593,
      "바꾸는": 3594,
      "장학금을": 3595,
      "협의체": 3596,
      "모집인원": 3597,
      "ack": 3598,
      "htt": 3599,
      "모터쇼": 3600,
      "용인대": 3601,
      "지금부터의": 3602,
      "1인당": 3603,
      "프레임": 3604,
      "광역본부": 3605,
      "메이슨인텔": 3606,
      "생체신호": 3607,
      "시나리오": 3608,
      "안심소득": 3609,
      "영덕군": 3610,
      "오른쪽": 3611,
      "워드클라우드": 3612,
      "카이스트": 3613,
      "활성화": 3614,
      "2025년까지": 3615,
      "고른기회": 3616,
      "굉장히": 3617,
      "금오공": 3618,
      "노이즈": 3619,
      "롤투롤": 3620,
      "마이크로": 3621,
      "배터리": 3622,
      "아카데미": 3623,
      "플라스틱": 3624,
      "대한상공회의소": 3625,
      "글로벌선진학교": 3626,
      "청년희망ON": 3627,
      "SK텔레콤": 3628,
      "메이슨인텔리전": 3629,
      ".”": 3630,
      "1위": 3631,
      "1차": 3632,
      "27": 3633,
      "240": 3634,
      "2단계": 3635,
      "36": 3636,
      "38": 3637,
      "43": 3638,
      "47": 3639,
      "5명": 3640,
      "5배": 3641,
      "67": 3642,
      "8명": 3643,
      "AR": 3644,
      "A202": 3645,
      "DB": 3646,
      "Io": 3647,
      "LE": 3648,
      "TSM": 3649,
      "ment": 3650,
      "pack": 3651,
      "ws": 3652,
      "wolf": 3653,
      "가로": 3654,
      "가속": 3655,
      "가족": 3656,
      "간의": 3657,
      "감소": 3658,
      "갔다": 3659,
      "개별": 3660,
      "개장": 3661,
      "겁니다": 3662,
      "것보다": 3663,
      "것일까": 3664,
      "격히": 3665,
      "계기로": 3666,
      "고는": 3667,
      "공자": 3668,
      "공헌": 3669,
      "과대학": 3670,
      "관점에서": 3671,
      "구글": 3672,
      "구동": 3673,
      "국대": 3674,
      "국의": 3675,
      "국정": 3676,
      "규명": 3677,
      "그렇": 3678,
      "그린": 3679,
      "근로": 3680,
      "글소프트": 3681,
      "금지": 3682,
      "급여": 3683,
      "기고": 3684,
      "기의": 3685,
      "기후": 3686,
      "김태": 3687,
      "꾸준": 3688,
      "끌고": 3689,
      "나를": 3690,
      "나가는": 3691,
      "나아가": 3692,
      "내에": 3693,
      "노바": 3694,
      "논쟁": 3695,
      "뇌를": 3696,
      "누가": 3697,
      "눈에": 3698,
      "눈으로": 3699,
      "느냐": 3700,
      "늘릴": 3701,
      "늘었다": 3702,
      "능한": 3703,
      "능력을": 3704,
      "니스": 3705,
      "닉스": 3706,
      "다봤다": 3707,
      "단한": 3708,
      "담론": 3709,
      "대대": 3710,
      "대규모": 3711,
      "더덴": 3712,
      "덕진": 3713,
      "데이트": 3714,
      "동맹": 3715,
      "동일": 3716,
      "동영상": 3717,
      "됐고": 3718,
      "두개": 3719,
      "두께": 3720,
      "뒀다": 3721,
      "뒤에": 3722,
      "드웨어": 3723,
      "든지": 3724,
      "들에": 3725,
      "디오": 3726,
      "딥러닝": 3727,
      "러웨이": 3728,
      "론을": 3729,
      "리더": 3730,
      "리스": 3731,
      "립니다": 3732,
      "링크": 3733,
      "마법": 3734,
      "만나": 3735,
      "만족": 3736,
      "많다": 3737,
      "맞는": 3738,
      "맡고": 3739,
      "메카": 3740,
      "명에": 3741,
      "모양": 3742,
      "목을": 3743,
      "무게": 3744,
      "무조건": 3745,
      "문항": 3746,
      "물을": 3747,
      "물건을": 3748,
      "므로": 3749,
      "미치": 3750,
      "박성": 3751,
      "반대": 3752,
      "받는다": 3753,
      "방이": 3754,
      "배경": 3755,
      "범위": 3756,
      "벤트": 3757,
      "변환": 3758,
      "변화를": 3759,
      "보편": 3760,
      "보험": 3761,
      "봐야": 3762,
      "부정": 3763,
      "부합": 3764,
      "분명": 3765,
      "불리": 3766,
      "불법": 3767,
      "붓다": 3768,
      "브리": 3769,
      "브랜드": 3770,
      "비는": 3771,
      "뿐이다": 3772,
      "사학": 3773,
      "상관": 3774,
      "상승": 3775,
      "상업": 3776,
      "상의": 3777,
      "상호": 3778,
      "상으로": 3779,
      "생태": 3780,
      "생들은": 3781,
      "서로": 3782,
      "서강대": 3783,
      "선을": 3784,
      "성도": 3785,
      "세기": 3786,
      "세한": 3787,
      "소속": 3788,
      "소영": 3789,
      "소화": 3790,
      "속도가": 3791,
      "속도를": 3792,
      "송의": 3793,
      "수단": 3794,
      "수당": 3795,
      "수입": 3796,
      "스는": 3797,
      "스의": 3798,
      "스쿨": 3799,
      "스터": 3800,
      "시켜": 3801,
      "식을": 3802,
      "신일": 3803,
      "신체": 3804,
      "신속한": 3805,
      "실기": 3806,
      "실력": 3807,
      "실을": 3808,
      "실전": 3809,
      "실행": 3810,
      "심각": 3811,
      "심의": 3812,
      "싶어": 3813,
      "쓰는": 3814,
      "씨가": 3815,
      "아닐": 3816,
      "아울": 3817,
      "아침": 3818,
      "아무리": 3819,
      "안드로": 3820,
      "앞둔": 3821,
      "약속": 3822,
      "양당": 3823,
      "양사": 3824,
      "양재진": 3825,
      "어린": 3826,
      "없고": 3827,
      "없애": 3828,
      "었지만": 3829,
      "여대": 3830,
      "연금": 3831,
      "연습": 3832,
      "연진": 3833,
      "열어": 3834,
      "열한": 3835,
      "열리는": 3836,
      "오커": 3837,
      "올리": 3838,
      "와이": 3839,
      "완성": 3840,
      "요즘": 3841,
      "용직": 3842,
      "우주": 3843,
      "우위를": 3844,
      "울주": 3845,
      "원격": 3846,
      "원리를": 3847,
      "웠다": 3848,
      "유망": 3849,
      "유연": 3850,
      "유형": 3851,
      "율을": 3852,
      "융복합": 3853,
      "의무": 3854,
      "의문": 3855,
      "의한": 3856,
      "의원은": 3857,
      "이게": 3858,
      "이로": 3859,
      "이면": 3860,
      "이하": 3861,
      "이한": 3862,
      "이벤트": 3863,
      "인쇄": 3864,
      "인턴": 3865,
      "일이": 3866,
      "일이다": 3867,
      "일용직": 3868,
      "입시": 3869,
      "있던": 3870,
      "자에": 3871,
      "자와": 3872,
      "자연계": 3873,
      "작성": 3874,
      "장관": 3875,
      "장치": 3876,
      "장덕진": 3877,
      "재난": 3878,
      "재분배": 3879,
      "저장": 3880,
      "전담": 3881,
      "전력": 3882,
      "전작": 3883,
      "전투": 3884,
      "접종": 3885,
      "정말": 3886,
      "정비": 3887,
      "정시": 3888,
      "정신": 3889,
      "정원": 3890,
      "정한": 3891,
      "정소영": 3892,
      "조절": 3893,
      "종양": 3894,
      "좌담회": 3895,
      "주식": 3896,
      "주제": 3897,
      "지면서": 3898,
      "진짜": 3899,
      "진출": 3900,
      "짜리": 3901,
      "차단": 3902,
      "차지": 3903,
      "챕터": 3904,
      "체인": 3905,
      "체제": 3906,
      "체험": 3907,
      "쳤다": 3908,
      "총장은": 3909,
      "총리가": 3910,
      "최첨단": 3911,
      "최연진": 3912,
      "추출": 3913,
      "충남": 3914,
      "충실": 3915,
      "취임": 3916,
      "측은": 3917,
      "치열한": 3918,
      "칼텍": 3919,
      "캘러웨이": 3920,
      "키로": 3921,
      "키우": 3922,
      "탐지": 3923,
      "택시": 3924,
      "토대로": 3925,
      "투스": 3926,
      "튜링": 3927,
      "티맵": 3928,
      "파크": 3929,
      "편소설": 3930,
      "폐쇄": 3931,
      "포럼": 3932,
      "표적": 3933,
      "풀어": 3934,
      "하니": 3935,
      "하던": 3936,
      "하드웨어": 3937,
      "학부": 3938,
      "학사": 3939,
      "한마": 3940,
      "한층": 3941,
      "해진다": 3942,
      "했을": 3943,
      "했지만": 3944,
      "행사": 3945,
      "행사에서": 3946,
      "허용": 3947,
      "홍보": 3948,
      "화장": 3949,
      "화하는": 3950,
      "화하고": 3951,
      "확정": 3952,
      "확대해": 3953,
      "활공비행": 3954,
      "회장은": 3955,
      "휴게": 3956,
      "에서부터": 3957,
      "있다면": 3958,
      "기술패권": 3959,
      "20만": 3960,
      "2020년": 3961,
      "개발이": 3962,
      "개발하는": 3963,
      "대학생": 3964,
      "대학은": 3965,
      "지원사업": 3966,
      "학생을": 3967,
      "학생들은": 3968,
      "전형을": 3969,
      "서비스다": 3970,
      "대표와": 3971,
      "대표이사": 3972,
      "사업으로": 3973,
      "사업에는": 3974,
      "19일": 3975,
      "기업들의": 3976,
      "소득을": 3977,
      "분야는": 3978,
      "데이터와": 3979,
      "사회에": 3980,
      "교수로": 3981,
      "시간은": 3982,
      "시간을": 3983,
      "109": 3984,
      "10명": 3985,
      "인도인": 3986,
      "보다는": 3987,
      "이용자를": 3988,
      "전문성을": 3989,
      "혁신적인": 3990,
      "혁신공유": 3991,
      "2023년": 3992,
      "지역에서": 3993,
      "이상을": 3994,
      "이상이": 3995,
      "영상과": 3996,
      "코로나19로": 3997,
      "지난해까지": 3998,
      "상황이": 3999,
      "업체들이": 4000,
      "운영하고": 4001,
      "교과를": 4002,
      "중개인이": 4003,
      "협력하는": 4004,
      "노동자의": 4005,
      "GS칼텍": 4006,
      "것이란": 4007,
      "채용을": 4008,
      "생각한다": 4009,
      "진행되고": 4010,
      "사진과": 4011,
      "제품을": 4012,
      "예측할": 4013,
      "예측하는": 4014,
      "기본소득을": 4015,
      "발전소": 4016,
      "발전에": 4017,
      "공개한다": 4018,
      "기준으로": 4019,
      "복지를": 4020,
      "과학기술원": 4021,
      "직원이": 4022,
      "예산을": 4023,
      "예산이": 4024,
      "시작한다": 4025,
      "고용계획을": 4026,
      "규모를": 4027,
      "개선을": 4028,
      "물류센터는": 4029,
      "공동캠퍼스": 4030,
      "공공정책": 4031,
      "정도의": 4032,
      "화질을": 4033,
      "IT전문기자": 4034,
      "비용이": 4035,
      "적용할": 4036,
      "기관인": 4037,
      "내년부터": 4038,
      "드론은": 4039,
      "드론을": 4040,
      "만들어낸": 4041,
      "11월": 4042,
      "반영한다": 4043,
      "우수한": 4044,
      "13일": 4045,
      "첫인상은": 4046,
      "발생하는": 4047,
      "의미한다": 4048,
      "최초의": 4049,
      "프로젝트를": 4050,
      "STT": 4051,
      "방식이다": 4052,
      "자체가": 4053,
      "공간을": 4054,
      "기회를": 4055,
      "늘어날": 4056,
      "최고의": 4057,
      "기대한다": 4058,
      "기초교육": 4059,
      "목표다": 4060,
      "목표를": 4061,
      "부회장의": 4062,
      "세종충남대": 4063,
      "임대료": 4064,
      "미사일은": 4065,
      "보유한": 4066,
      "작업을": 4067,
      "작업장": 4068,
      "지식과": 4069,
      "지식을": 4070,
      "최적화된": 4071,
      "앞으로도": 4072,
      "자료사진": 4073,
      "나오는": 4074,
      "실험을": 4075,
      "제약공학과": 4076,
      "earn": 4077,
      "박사학위를": 4078,
      "컴퓨터공학": 4079,
      "보여주는": 4080,
      "주도하고": 4081,
      "파트너": 4082,
      "폴리오": 4083,
      "국토교통": 4084,
      "문화체육": 4085,
      "신입생을": 4086,
      "작동하는": 4087,
      "23일": 4088,
      "다르게": 4089,
      "신세계백화점": 4090,
      "관심을": 4091,
      "내용을": 4092,
      "스피드": 4093,
      "언론진흥": 4094,
      "지적했다": 4095,
      "클럽하우": 4096,
      "대학교는": 4097,
      "도움이": 4098,
      "무선망": 4099,
      "서류평가": 4100,
      "소방본부": 4101,
      "신한금융": 4102,
      "재직자": 4103,
      "촬영을": 4104,
      "대구시교육청은": 4105,
      "인프라를": 4106,
      "고등학교": 4107,
      "라이프": 4108,
      "갖추고": 4109,
      "둘러싼": 4110,
      "디스플레이": 4111,
      "점검하고": 4112,
      "폐페트병": 4113,
      "하려는": 4114,
      "힘들다": 4115,
      "CEO": 4116,
      "News": 4117,
      "더불어민주당": 4118,
      "문체부는": 4119,
      "반려로봇": 4120,
      "방침이다": 4121,
      "베이글소프트": 4122,
      "빠르게": 4123,
      "영향을": 4124,
      "10일부터": 4125,
      "후보물질을": 4126,
      "2022년도": 4127,
      "어려움을": 4128,
      "원티드랩": 4129,
      "이원재": 4130,
      "서울시립": 4131,
      "180조": 4132,
      "공인중개사": 4133,
      "Read": 4134,
      "덧붙였다": 4135,
      "비소세포폐암": 4136,
      "안마의": 4137,
      "오프라인": 4138,
      "포인트": 4139,
      "https": 4140,
      "마이크로소프트": 4141,
      "아카데미아": 4142,
      "A202109": 4143,
      "IoT": 4144,
      "TSMC": 4145,
      "wolfpack": 4146,
      "노바투스": 4147,
      "박성현": 4148,
      "송의영": 4149,
      "아울러": 4150,
      "안드로이드": 4151,
      "와이더덴": 4152,
      "이한호": 4153,
      "earning": 4154,
      "문화체육관광": 4155,
      "언론진흥재단": 4156,
      "\"(": 4157,
      "%(": 4158,
      ")=": 4159,
      "1로": 4160,
      "1월": 4161,
      "1층": 4162,
      "1시간": 4163,
      "12일": 4164,
      "2월": 4165,
      "22일": 4166,
      "37": 4167,
      "39": 4168,
      "3억": 4169,
      "3일": 4170,
      "3자": 4171,
      "3학년": 4172,
      "44": 4173,
      "58": 4174,
      "5만": 4175,
      "5세대": 4176,
      "64": 4177,
      "6시": 4178,
      "6개월": 4179,
      "72": 4180,
      "7개": 4181,
      "7억": 4182,
      "75년": 4183,
      "85": 4184,
      "89": 4185,
      "8구간": 4186,
      "9개": 4187,
      "DGB": 4188,
      "En": 4189,
      "GT": 4190,
      "KIST": 4191,
      "LN": 4192,
      "Rol": 4193,
      "SU": 4194,
      "Stu": 4195,
      "di": 4196,
      "ec": 4197,
      "es": 4198,
      "ge": 4199,
      "iX": 4200,
      "or": 4201,
      "po": 4202,
      "가를": 4203,
      "가수": 4204,
      "가야": 4205,
      "가입": 4206,
      "각지": 4207,
      "간편": 4208,
      "갈등이": 4209,
      "강은": 4210,
      "강현실": 4211,
      "개입": 4212,
      "거다": 4213,
      "건강한": 4214,
      "건국대": 4215,
      "걷는": 4216,
      "겠지만": 4217,
      "격차": 4218,
      "계의": 4219,
      "계층": 4220,
      "계통": 4221,
      "고령": 4222,
      "고를": 4223,
      "고층": 4224,
      "고성능": 4225,
      "곳은": 4226,
      "곳이": 4227,
      "곳이다": 4228,
      "공론": 4229,
      "과도": 4230,
      "과장은": 4231,
      "과제를": 4232,
      "과감한": 4233,
      "괜찮": 4234,
      "구나": 4235,
      "구직": 4236,
      "국비": 4237,
      "군집": 4238,
      "권의": 4239,
      "규정": 4240,
      "규제를": 4241,
      "그간": 4242,
      "그럼": 4243,
      "그의": 4244,
      "그대로": 4245,
      "금과": 4246,
      "금액": 4247,
      "급격히": 4248,
      "기구": 4249,
      "기심": 4250,
      "기적인": 4251,
      "김영": 4252,
      "김형": 4253,
      "김효": 4254,
      "김씨는": 4255,
      "꼽히": 4256,
      "끼리": 4257,
      "나라는": 4258,
      "남은": 4259,
      "내외": 4260,
      "냉전": 4261,
      "넘게": 4262,
      "년간": 4263,
      "노조": 4264,
      "높이": 4265,
      "높이고": 4266,
      "눈길": 4267,
      "늘려": 4268,
      "능동": 4269,
      "니아": 4270,
      "니지": 4271,
      "닉5": 4272,
      "다만": 4273,
      "다수": 4274,
      "담은": 4275,
      "당면": 4276,
      "당사": 4277,
      "당장": 4278,
      "당한": 4279,
      "대변": 4280,
      "대에": 4281,
      "대폭": 4282,
      "대답을": 4283,
      "도와": 4284,
      "돌발": 4285,
      "돌봄": 4286,
      "됩니다": 4287,
      "듀테크": 4288,
      "드라": 4289,
      "드립니다": 4290,
      "들고": 4291,
      "등에서": 4292,
      "디로": 4293,
      "딥페": 4294,
      "때도": 4295,
      "때까지": 4296,
      "때마다": 4297,
      "똑똑": 4298,
      "라며": 4299,
      "량은": 4300,
      "러블": 4301,
      "렇다": 4302,
      "력과": 4303,
      "리그": 4304,
      "리테": 4305,
      "리포": 4306,
      "마감": 4307,
      "마지": 4308,
      "만났다": 4309,
      "많을": 4310,
      "말이다": 4311,
      "망서비스": 4312,
      "맞다": 4313,
      "맞았다": 4314,
      "매도": 4315,
      "매수": 4316,
      "메모리": 4317,
      "면적": 4318,
      "명까지": 4319,
      "무인": 4320,
      "문이": 4321,
      "문자": 4322,
      "물어": 4323,
      "물의": 4324,
      "뮌헨": 4325,
      "뮤니": 4326,
      "미나": 4327,
      "미술": 4328,
      "미칼": 4329,
      "믿는다": 4330,
      "반값": 4331,
      "반해": 4332,
      "받고": 4333,
      "받기": 4334,
      "발견": 4335,
      "발송": 4336,
      "발현": 4337,
      "배영": 4338,
      "배수를": 4339,
      "밸리": 4340,
      "버튼": 4341,
      "벤츠": 4342,
      "보면서": 4343,
      "보이지": 4344,
      "복귀": 4345,
      "부랴": 4346,
      "부응": 4347,
      "부지": 4348,
      "분당": 4349,
      "분류": 4350,
      "분의": 4351,
      "불거": 4352,
      "불평": 4353,
      "불리는": 4354,
      "비서": 4355,
      "비와": 4356,
      "비판": 4357,
      "빨라": 4358,
      "뿐만": 4359,
      "사상": 4360,
      "사각지": 4361,
      "삭제": 4362,
      "산하": 4363,
      "산해": 4364,
      "살아": 4365,
      "살펴": 4366,
      "상상": 4367,
      "상태": 4368,
      "생성": 4369,
      "생기업": 4370,
      "서의": 4371,
      "선언": 4372,
      "성격": 4373,
      "성향": 4374,
      "성장을": 4375,
      "세부": 4376,
      "세상": 4377,
      "세워": 4378,
      "셉트": 4379,
      "소셜": 4380,
      "소규모": 4381,
      "손실": 4382,
      "손쉽게": 4383,
      "수급": 4384,
      "수립": 4385,
      "수십": 4386,
      "수많은": 4387,
      "순환": 4388,
      "스러": 4389,
      "스며": 4390,
      "스탠": 4391,
      "스톡": 4392,
      "스튜": 4393,
      "시켰": 4394,
      "시킨": 4395,
      "식에서": 4396,
      "신생기업": 4397,
      "실은": 4398,
      "실태": 4399,
      "심층": 4400,
      "쏟아": 4401,
      "아서": 4402,
      "아야": 4403,
      "아웃": 4404,
      "아트": 4405,
      "아프": 4406,
      "않나": 4407,
      "알파": 4408,
      "압도": 4409,
      "았죠": 4410,
      "았어요": 4411,
      "양산": 4412,
      "양상을": 4413,
      "어느": 4414,
      "어는": 4415,
      "언택": 4416,
      "엄청": 4417,
      "업종": 4418,
      "없었다": 4419,
      "없다는": 4420,
      "었고": 4421,
      "었어요": 4422,
      "엉뚱": 4423,
      "에듀테크": 4424,
      "여가": 4425,
      "연료": 4426,
      "연재": 4427,
      "열었다": 4428,
      "였고": 4429,
      "영업": 4430,
      "예비": 4431,
      "오늘": 4432,
      "오토": 4433,
      "오픈": 4434,
      "올리는": 4435,
      "올바른": 4436,
      "옮기는": 4437,
      "옵션": 4438,
      "왕적": 4439,
      "왜곡": 4440,
      "요청": 4441,
      "운용": 4442,
      "원래": 4443,
      "원료": 4444,
      "원리": 4445,
      "원서": 4446,
      "원천": 4447,
      "원희": 4448,
      "위기": 4449,
      "위성": 4450,
      "위에": 4451,
      "위의": 4452,
      "위협": 4453,
      "유발": 4454,
      "유의": 4455,
      "융기": 4456,
      "으나": 4457,
      "음은": 4458,
      "의학": 4459,
      "의회": 4460,
      "이달": 4461,
      "이때": 4462,
      "이오": 4463,
      "이온": 4464,
      "이탈": 4465,
      "이들에게": 4466,
      "이처럼": 4467,
      "이르는": 4468,
      "이른다": 4469,
      "이끌어": 4470,
      "이렇다": 4471,
      "인체": 4472,
      "인사를": 4473,
      "일만": 4474,
      "일부": 4475,
      "일어": 4476,
      "일에": 4477,
      "잇따라": 4478,
      "있지": 4479,
      "자문": 4480,
      "작전": 4481,
      "작품": 4482,
      "장소": 4483,
      "장애": 4484,
      "장점": 4485,
      "장착": 4486,
      "장추천": 4487,
      "장편소설": 4488,
      "재원": 4489,
      "재원을": 4490,
      "적게": 4491,
      "적합": 4492,
      "적이었다": 4493,
      "전반": 4494,
      "전세계": 4495,
      "절반": 4496,
      "젊은": 4497,
      "점도": 4498,
      "점에": 4499,
      "점수를": 4500,
      "정규": 4501,
      "정상": 4502,
      "정서": 4503,
      "제안": 4504,
      "제외": 4505,
      "제일": 4506,
      "제휴": 4507,
      "제왕적": 4508,
      "조정": 4509,
      "조합": 4510,
      "종류": 4511,
      "좋지": 4512,
      "주고": 4513,
      "주변": 4514,
      "주제를": 4515,
      "중견": 4516,
      "중단": 4517,
      "중도": 4518,
      "중독": 4519,
      "중립": 4520,
      "줘야": 4521,
      "줬다": 4522,
      "증강현실": 4523,
      "지가": 4524,
      "지구": 4525,
      "지니": 4526,
      "지면": 4527,
      "지어": 4528,
      "직무": 4529,
      "진입": 4530,
      "집값": 4531,
      "짚어": 4532,
      "차고": 4533,
      "차별": 4534,
      "차에": 4535,
      "차원의": 4536,
      "착륙": 4537,
      "창고": 4538,
      "창조": 4539,
      "채무": 4540,
      "철저": 4541,
      "청와": 4542,
      "초빙": 4543,
      "추는": 4544,
      "출근": 4545,
      "출제": 4546,
      "취약": 4547,
      "캡처": 4548,
      "커넥": 4549,
      "커뮤니": 4550,
      "컨설": 4551,
      "케이션": 4552,
      "케미칼": 4553,
      "켑코": 4554,
      "코더": 4555,
      "콘셉트": 4556,
      "탐구": 4557,
      "택배": 4558,
      "특이": 4559,
      "특화": 4560,
      "팀장은": 4561,
      "파로": 4562,
      "파이": 4563,
      "패션": 4564,
      "편향": 4565,
      "프랑": 4566,
      "플레": 4567,
      "피부": 4568,
      "하락": 4569,
      "학술": 4570,
      "학위": 4571,
      "학회": 4572,
      "한전": 4573,
      "할지": 4574,
      "함을": 4575,
      "합병": 4576,
      "합산해": 4577,
      "항목": 4578,
      "해보": 4579,
      "해선": 4580,
      "해진": 4581,
      "해보자": 4582,
      "했죠": 4583,
      "행보": 4584,
      "행을": 4585,
      "헤드": 4586,
      "현금": 4587,
      "협회": 4588,
      "호남대": 4589,
      "호기심": 4590,
      "화가": 4591,
      "화려": 4592,
      "화상": 4593,
      "화성": 4594,
      "화원": 4595,
      "화합": 4596,
      "화제가": 4597,
      "회에서": 4598,
      "힘을": 4599,
      "힘들어": 4600,
      "에서든": 4601,
      "에서의": 4602,
      "하는지": 4603,
      "기술도": 4604,
      "기술에": 4605,
      "기술이다": 4606,
      "인공지능에": 4607,
      "인공지능공학과": 4608,
      "AI로": 4609,
      "AI소설": 4610,
      "20일": 4611,
      "2000": 4612,
      "교육감": 4613,
      "교육비": 4614,
      "교육생들은": 4615,
      "연구가": 4616,
      "연구를": 4617,
      "연구센터": 4618,
      "대학으로": 4619,
      "제공해": 4620,
      "제공하기": 4621,
      "한국을": 4622,
      "한국형": 4623,
      "한국토지": 4624,
      "지원이": 4625,
      "지원금을": 4626,
      "지원자격": 4627,
      "하다는": 4628,
      "학생의": 4629,
      "학생이": 4630,
      "학생들의": 4631,
      "학생들에게": 4632,
      "대표를": 4633,
      "위해서다": 4634,
      "기업들이": 4635,
      "분야가": 4636,
      "가능성에": 4637,
      "사회관계": 4638,
      "사회복지": 4639,
      "사회공헌": 4640,
      "미래에": 4641,
      "미래학교": 4642,
      "서울여대": 4643,
      "사람은": 4644,
      "사람에게": 4645,
      "사람들에게": 4646,
      "투자하고": 4647,
      "투자계획을": 4648,
      "과정이": 4649,
      "하게도": 4650,
      "10만": 4651,
      "인도는": 4652,
      "문제도": 4653,
      "센터를": 4654,
      "이용객": 4655,
      "이용자": 4656,
      "들어가": 4657,
      "2021년": 4658,
      "지역에": 4659,
      "지역인재": 4660,
      "대구경북": 4661,
      "평가하는": 4662,
      "기본적인": 4663,
      "분석을": 4664,
      "올해부터": 4665,
      "올해보다": 4666,
      "정부의": 4667,
      "상황에": 4668,
      "선발할": 4669,
      "선발하고": 4670,
      "업체들도": 4671,
      "융합형": 4672,
      "중개수수료": 4673,
      "000명": 4674,
      "자동으로": 4675,
      "GS는": 4676,
      "GS리테": 4677,
      "인재양성": 4678,
      "30만": 4679,
      "기능도": 4680,
      "제도는": 4681,
      "국민이": 4682,
      "시대를": 4683,
      "채용관": 4684,
      "경쟁을": 4685,
      "진행된": 4686,
      "학교생활": 4687,
      "학교장추천": 4688,
      "현대자동차": 4689,
      "제품은": 4690,
      "2014년": 4691,
      "2017년": 4692,
      "구축을": 4693,
      "발전량": 4694,
      "설계를": 4695,
      "신설한": 4696,
      "신설했다": 4697,
      "없다고": 4698,
      "자율운항": 4699,
      "공개된": 4700,
      "공개했다": 4701,
      "복지국가": 4702,
      "그러다": 4703,
      "그러면서": 4704,
      "모델링": 4705,
      "전략과": 4706,
      "연구원은": 4707,
      "겠다고": 4708,
      "수준이다": 4709,
      "예산도": 4710,
      "예산으로": 4711,
      "이어서": 4712,
      "정치외교": 4713,
      "현실적으로": 4714,
      "결과는": 4715,
      "결과에": 4716,
      "물류센터의": 4717,
      "공동으로": 4718,
      "추진한다": 4719,
      "공공기관": 4720,
      "일자리가": 4721,
      "종합적으로": 4722,
      "확대를": 4723,
      "참여하는": 4724,
      "효율적인": 4725,
      "프로그래": 4726,
      "정확도가": 4727,
      "대통령은": 4728,
      "기관과": 4729,
      "내년에": 4730,
      "양성에": 4731,
      "웨어러블": 4732,
      "위험을": 4733,
      "위험이": 4734,
      "주택공사": 4735,
      "100만": 4736,
      "100억": 4737,
      "생활을": 4738,
      "증가한": 4739,
      "증가했다": 4740,
      "넘어선": 4741,
      "대응하는": 4742,
      "변화와": 4743,
      "역량진단": 4744,
      "바이오팜": 4745,
      "체계적으로": 4746,
      "18일": 4747,
      "공정으로": 4748,
      "발생할": 4749,
      "의미를": 4750,
      "태양전": 4751,
      "교통상황": 4752,
      "만들었다": 4753,
      "사이의": 4754,
      "사이니지": 4755,
      "외국어를": 4756,
      "회의록": 4757,
      "효과를": 4758,
      "효과적으로": 4759,
      "교육과정에": 4760,
      "스마트시티를": 4761,
      "모빌리티의": 4762,
      "롯데케미칼": 4763,
      "부분이": 4764,
      "기회균형": 4765,
      "단계에서": 4766,
      "이뤄졌다": 4767,
      "이뤄진다": 4768,
      "제시한": 4769,
      "인천공항공사": 4770,
      "가치를": 4771,
      "기대된다": 4772,
      "단어를": 4773,
      "방법은": 4774,
      "부회장이": 4775,
      "이제는": 4776,
      "진단할": 4777,
      "등급을": 4778,
      "성장할": 4779,
      "수수료는": 4780,
      "영국은": 4781,
      "참석한": 4782,
      "트위터에": 4783,
      "트위터코리아": 4784,
      "교육부는": 4785,
      "스마트폰을": 4786,
      "정보통신기술": 4787,
      "필요한데": 4788,
      "enc": 4789,
      "본부장": 4790,
      "애플은": 4791,
      "어렵다는": 4792,
      "장기적으로": 4793,
      "집중할": 4794,
      "최적의": 4795,
      "병원에서": 4796,
      "고교추천": 4797,
      "졸업생": 4798,
      "80년대": 4799,
      "목소리를": 4800,
      "목소리가": 4801,
      "보장해": 4802,
      "실시간으로": 4803,
      "개인의": 4804,
      "기계가": 4805,
      "디자인을": 4806,
      "무엇보다": 4807,
      "이야기를": 4808,
      "자신의": 4809,
      "자신이": 4810,
      "테스트베": 4811,
      "파악해": 4812,
      "LG전자": 4813,
      "별로는": 4814,
      "상대적으로": 4815,
      "형태로": 4816,
      "23명": 4817,
      "SK바이오팜": 4818,
      "토론회에": 4819,
      "PDA": 4820,
      "녹내장을": 4821,
      "되어야": 4822,
      "방사선": 4823,
      "부품을": 4824,
      "지점의": 4825,
      "공부방을": 4826,
      "군사학과": 4827,
      "도움을": 4828,
      "부담을": 4829,
      "에픽의": 4830,
      "역대급": 4831,
      "주체가": 4832,
      "현지시간": 4833,
      "활동을": 4834,
      "경남대는": 4835,
      "과제인": 4836,
      "너무나": 4837,
      "다음날": 4838,
      "알려졌다": 4839,
      "자연스럽": 4840,
      "특허청": 4841,
      "아이디어를": 4842,
      "ESG위원회": 4843,
      "BMW": 4844,
      "간담회를": 4845,
      "긍정적인": 4846,
      "바람에": 4847,
      "방송통신": 4848,
      "사내벤처": 4849,
      "인문계열": 4850,
      "접목해": 4851,
      "총리와": 4852,
      "GS그룹은": 4853,
      "리벨리온은": 4854,
      "리벨리온의": 4855,
      "가져올": 4856,
      "기념촬영을": 4857,
      "바뀌어야": 4858,
      "상용화": 4859,
      "상품을": 4860,
      "유사한": 4861,
      "전파담": 4862,
      "줄어든": 4863,
      "줄어드는": 4864,
      "최선의": 4865,
      "통계적": 4866,
      "합격자를": 4867,
      "확진자가": 4868,
      "2016년부터": 4869,
      "보건의료정보학과": 4870,
      "CPO": 4871,
      "tion": 4872,
      "감안하면": 4873,
      "국무총리가": 4874,
      "수소전기차": 4875,
      "자본가": 4876,
      "저렴한": 4877,
      "지주사": 4878,
      "계열사들은": 4879,
      "놀라운": 4880,
      "달성했다": 4881,
      "당연히": 4882,
      "로버트": 4883,
      "복잡한": 4884,
      "사물인터넷": 4885,
      "수험생": 4886,
      "스페이스X": 4887,
      "엑스포": 4888,
      "올랐다": 4889,
      "저소득층": 4890,
      "조용히": 4891,
      "회수로봇": 4892,
      "아이오닉5": 4893,
      "기자회견": 4894,
      "프레임워크": 4895,
      "시나리오를": 4896,
      "대한상공회의소에서": 4897,
      "240조": 4898,
      "가속화": 4899,
      "꾸준히": 4900,
      "브리핑": 4901,
      "소화약": 4902,
      "수입차": 4903,
      "어린이": 4904,
      "울주군": 4905,
      "자연계열": 4906,
      "정원외": 4907,
      "화장실": 4908,
      "활공비행체": 4909,
      "혁신공유대학": 4910,
      "기초교육원": 4911,
      "세종충남대병원": 4912,
      "폴리오컴퍼니": 4913,
      "국토교통부": 4914,
      "클럽하우스": 4915,
      "LNG": 4916,
      "Roll": 4917,
      "SUV": 4918,
      "Studi": 4919,
      "강은희": 4920,
      "김효은": 4921,
      "꼽히는": 4922,
      "드라이버": 4923,
      "딥페이크": 4924,
      "마지막": 4925,
      "배영자": 4926,
      "스톡옵션": 4927,
      "언택트": 4928,
      "원희룡": 4929,
      "켑코솔": 4930,
      "한국토지주택공사": 4931,
      "사회관계망서비스": 4932,
      "정치외교학과": 4933,
      "자연스럽게": 4934,
      "Studio": 4935,
      "%+": 4936,
      ")·": 4937,
      "08": 4938,
      "1에": 4939,
      "120": 4940,
      "1위를": 4941,
      "2기": 4942,
      "2차": 4943,
      "29일": 4944,
      "32": 4945,
      "35": 4946,
      "3시": 4947,
      "3회": 4948,
      "4월": 4949,
      "4일": 4950,
      "4명을": 4951,
      "59": 4952,
      "5대": 4953,
      "5조4": 4954,
      "69": 4955,
      "6개": 4956,
      "6만": 4957,
      "600": 4958,
      "600억": 4959,
      "75": 4960,
      "76": 4961,
      "8만": 4962,
      "8억": 4963,
      "96": 4964,
      "99": 4965,
      "9도": 4966,
      "9만": 4967,
      "9월": 4968,
      "900": 4969,
      "900억": 4970,
      "CN": 4971,
      "DI": 4972,
      "DX": 4973,
      "EE": 4974,
      "GV": 4975,
      "ID": 4976,
      "IBM": 4977,
      "JP": 4978,
      "JW": 4979,
      "KDI": 4980,
      "Learning": 4981,
      "MO": 4982,
      "MS": 4983,
      "MIT": 4984,
      "OS": 4985,
      "Pro": 4986,
      "Qu": 4987,
      "SF": 4988,
      "SO": 4989,
      "US": 4990,
      "UX": 4991,
      "at": 4992,
      "age": 4993,
      "e스포츠": 4994,
      "gy": 4995,
      "hy": 4996,
      "le": 4997,
      "len": 4998,
      "mm": 4999,
      "od": 5000,
      "of": 5001,
      "ron": 5002,
      "si": 5003,
      "won": 5004,
      "가동": 5005,
      "가득": 5006,
      "가면": 5007,
      "가벼": 5008,
      "가석": 5009,
      "가와": 5010,
      "간다": 5011,
      "감당": 5012,
      "감동": 5013,
      "감면": 5014,
      "감사": 5015,
      "감에": 5016,
      "감정": 5017,
      "강독": 5018,
      "강제": 5019,
      "강하고": 5020,
      "강점을": 5021,
      "갖는": 5022,
      "갖춰": 5023,
      "갖췄": 5024,
      "갖도록": 5025,
      "개가": 5026,
      "개교": 5027,
      "개로": 5028,
      "개설": 5029,
      "개소": 5030,
      "개에": 5031,
      "개점": 5032,
      "거론": 5033,
      "거세": 5034,
      "거운": 5035,
      "거치": 5036,
      "거리로": 5037,
      "거뒀다": 5038,
      "건강": 5039,
      "건고": 5040,
      "건으로": 5041,
      "걸러": 5042,
      "걸리": 5043,
      "걸릴": 5044,
      "검정": 5045,
      "것이라고": 5046,
      "것처럼": 5047,
      "것이라는": 5048,
      "게시": 5049,
      "게요": 5050,
      "겠단": 5051,
      "격주": 5052,
      "겪고": 5053,
      "결로": 5054,
      "결제와": 5055,
      "경량": 5056,
      "경로": 5057,
      "고속": 5058,
      "고인": 5059,
      "공무": 5060,
      "공식": 5061,
      "공약": 5062,
      "공장": 5063,
      "공저": 5064,
      "공포": 5065,
      "과기": 5066,
      "과제로": 5067,
      "관여": 5068,
      "관찰": 5069,
      "교사가": 5070,
      "구를": 5071,
      "국이": 5072,
      "국에서": 5073,
      "권대": 5074,
      "권이": 5075,
      "권한": 5076,
      "규어": 5077,
      "규제가": 5078,
      "그가": 5079,
      "그나": 5080,
      "그에": 5081,
      "그와": 5082,
      "그들의": 5083,
      "근육": 5084,
      "글을": 5085,
      "금은": 5086,
      "급변": 5087,
      "기동": 5088,
      "기억": 5089,
      "기와": 5090,
      "기울": 5091,
      "기판": 5092,
      "기하고": 5093,
      "기보다": 5094,
      "김종": 5095,
      "김혜": 5096,
      "김희": 5097,
      "김진영": 5098,
      "깊은": 5099,
      "깊이": 5100,
      "꼽았다": 5101,
      "꿔야": 5102,
      "끄는": 5103,
      "끊임": 5104,
      "나게": 5105,
      "나노": 5106,
      "나도": 5107,
      "나머": 5108,
      "나아": 5109,
      "나이": 5110,
      "나이가": 5111,
      "나중에": 5112,
      "날아": 5113,
      "날이": 5114,
      "낮아": 5115,
      "내놨": 5116,
      "내리": 5117,
      "내면": 5118,
      "내실": 5119,
      "내어": 5120,
      "내장": 5121,
      "내지": 5122,
      "낸다": 5123,
      "너를": 5124,
      "너지를": 5125,
      "널이": 5126,
      "넓은": 5127,
      "넣어": 5128,
      "년을": 5129,
      "년까지": 5130,
      "노래": 5131,
      "노령": 5132,
      "노베": 5133,
      "노출": 5134,
      "노력이": 5135,
      "높게": 5136,
      "높고": 5137,
      "높여": 5138,
      "높았다": 5139,
      "놓을": 5140,
      "뇌과학": 5141,
      "누리": 5142,
      "느껴": 5143,
      "는지": 5144,
      "늘고": 5145,
      "늘렸다": 5146,
      "니까": 5147,
      "다녀": 5148,
      "다수의": 5149,
      "단비": 5150,
      "단일": 5151,
      "단편": 5152,
      "단행": 5153,
      "달했다": 5154,
      "답변": 5155,
      "당국": 5156,
      "당선": 5157,
      "당대표가": 5158,
      "대권": 5159,
      "대량": 5160,
      "대리": 5161,
      "대만": 5162,
      "대와": 5163,
      "대외": 5164,
      "대중": 5165,
      "대처": 5166,
      "대안을": 5167,
      "대건고": 5168,
      "더했다": 5169,
      "데다": 5170,
      "데스": 5171,
      "도덕": 5172,
      "도심": 5173,
      "독점": 5174,
      "돌아": 5175,
      "돌연": 5176,
      "돕기": 5177,
      "동구": 5178,
      "동네": 5179,
      "동력": 5180,
      "되었던": 5181,
      "두는": 5182,
      "두려": 5183,
      "두운": 5184,
      "두진": 5185,
      "둘째": 5186,
      "드리": 5187,
      "드박스": 5188,
      "들인": 5189,
      "따져": 5190,
      "땜질": 5191,
      "떠올랐다": 5192,
      "뛰기": 5193,
      "뜨거운": 5194,
      "뜬다": 5195,
      "뜻을": 5196,
      "란다": 5197,
      "랜드로": 5198,
      "러다": 5199,
      "로드": 5200,
      "로우": 5201,
      "로워": 5202,
      "로지": 5203,
      "롭테크": 5204,
      "률이": 5205,
      "르고": 5206,
      "르세": 5207,
      "르지": 5208,
      "르바이": 5209,
      "리드": 5210,
      "리터": 5211,
      "리트": 5212,
      "립션": 5213,
      "마찬": 5214,
      "마크": 5215,
      "마포": 5216,
      "막대": 5217,
      "만한": 5218,
      "만으로": 5219,
      "만하다": 5220,
      "많지": 5221,
      "말에": 5222,
      "말이": 5223,
      "말한다": 5224,
      "맡은": 5225,
      "매장": 5226,
      "매출": 5227,
      "맥락": 5228,
      "맺고": 5229,
      "머스크": 5230,
      "먹거리로": 5231,
      "메르세": 5232,
      "면허": 5233,
      "명한": 5234,
      "명확": 5235,
      "모듈": 5236,
      "모르": 5237,
      "모색": 5238,
      "모으": 5239,
      "모임": 5240,
      "모비스": 5241,
      "모르는": 5242,
      "모임을": 5243,
      "못한": 5244,
      "못했": 5245,
      "못하는": 5246,
      "무관": 5247,
      "문경": 5248,
      "문과": 5249,
      "물리": 5250,
      "물이": 5251,
      "물품": 5252,
      "미소": 5253,
      "민감": 5254,
      "민감한": 5255,
      "밀접": 5256,
      "바둑": 5257,
      "바지": 5258,
      "바로보": 5259,
      "바꿔야": 5260,
      "바란다": 5261,
      "박두진": 5262,
      "반입": 5263,
      "반대로": 5264,
      "발달": 5265,
      "발행": 5266,
      "방과": 5267,
      "방학": 5268,
      "배정": 5269,
      "배포": 5270,
      "버그": 5271,
      "버추": 5272,
      "버코리아": 5273,
      "번에": 5274,
      "벌써": 5275,
      "법률": 5276,
      "법을": 5277,
      "벗어": 5278,
      "벤션": 5279,
      "병동": 5280,
      "병수": 5281,
      "병행": 5282,
      "보완": 5283,
      "보증": 5284,
      "보지": 5285,
      "보충": 5286,
      "보행": 5287,
      "복덕": 5288,
      "본인": 5289,
      "부과": 5290,
      "부상": 5291,
      "부서": 5292,
      "부와": 5293,
      "부착": 5294,
      "부처": 5295,
      "부한": 5296,
      "부르는": 5297,
      "부른다": 5298,
      "부상자": 5299,
      "분노": 5300,
      "불가능하다": 5301,
      "붓다는": 5302,
      "브레": 5303,
      "브록": 5304,
      "브레이": 5305,
      "블록": 5306,
      "비가": 5307,
      "비로": 5308,
      "비밀": 5309,
      "비슷": 5310,
      "비율": 5311,
      "빈곤": 5312,
      "뽑는다": 5313,
      "사명": 5314,
      "사옥": 5315,
      "사체": 5316,
      "산물": 5317,
      "상은": 5318,
      "상주": 5319,
      "상대로": 5320,
      "상거래": 5321,
      "샌드박스": 5322,
      "생기": 5323,
      "생긴": 5324,
      "서야": 5325,
      "서양": 5326,
      "서판": 5327,
      "서병수": 5328,
      "석을": 5329,
      "선불": 5330,
      "선인": 5331,
      "선임": 5332,
      "선입": 5333,
      "선제": 5334,
      "선보인": 5335,
      "선명한": 5336,
      "성사": 5337,
      "세련": 5338,
      "세우": 5339,
      "세제": 5340,
      "세상을": 5341,
      "세미나": 5342,
      "센티브": 5343,
      "셀러": 5344,
      "소리": 5345,
      "소액": 5346,
      "소양": 5347,
      "소외": 5348,
      "소요": 5349,
      "소유": 5350,
      "소아마": 5351,
      "속에": 5352,
      "수거": 5353,
      "수백": 5354,
      "수석": 5355,
      "수주": 5356,
      "수천": 5357,
      "수출": 5358,
      "수함": 5359,
      "수했다": 5360,
      "수하고": 5361,
      "순차": 5362,
      "순항": 5363,
      "쉬는": 5364,
      "스레": 5365,
      "스와": 5366,
      "스팟": 5367,
      "스페": 5368,
      "스위치": 5369,
      "습기를": 5370,
      "승민": 5371,
      "승인": 5372,
      "승자가": 5373,
      "시급": 5374,
      "시범": 5375,
      "시선": 5376,
      "시절": 5377,
      "시점": 5378,
      "시교육청": 5379,
      "신인": 5380,
      "신중": 5381,
      "신산업": 5382,
      "신사업": 5383,
      "싣고": 5384,
      "실내": 5385,
      "실로": 5386,
      "실무": 5387,
      "실업": 5388,
      "실장": 5389,
      "실질": 5390,
      "심사": 5391,
      "심해": 5392,
      "심지어": 5393,
      "싶다": 5394,
      "싸움": 5395,
      "아무": 5396,
      "아예": 5397,
      "아일": 5398,
      "아톰": 5399,
      "안과": 5400,
      "안의": 5401,
      "안이": 5402,
      "앉아": 5403,
      "않도록": 5404,
      "않으면": 5405,
      "알림": 5406,
      "앞줄": 5407,
      "액셀러": 5408,
      "앱은": 5409,
      "야기": 5410,
      "야당": 5411,
      "양극": 5412,
      "양사는": 5413,
      "양국의": 5414,
      "어떨": 5415,
      "어를": 5416,
      "어진": 5417,
      "어두운": 5418,
      "얻은": 5419,
      "업데이트": 5420,
      "없으니": 5421,
      "엔지니": 5422,
      "여부": 5423,
      "여유": 5424,
      "역임": 5425,
      "연도": 5426,
      "연동": 5427,
      "연령": 5428,
      "연방": 5429,
      "연속": 5430,
      "연체": 5431,
      "연말까지": 5432,
      "열고": 5433,
      "예를": 5434,
      "오랜": 5435,
      "오자": 5436,
      "오즈": 5437,
      "오르는": 5438,
      "온스타": 5439,
      "원본": 5440,
      "원화": 5441,
      "원인을": 5442,
      "위에서": 5443,
      "위기가": 5444,
      "위주로": 5445,
      "유관": 5446,
      "유리": 5447,
      "유튜": 5448,
      "유승민": 5449,
      "윤종": 5450,
      "음속": 5451,
      "음의": 5452,
      "음에도": 5453,
      "의견": 5454,
      "의뢰": 5455,
      "의향": 5456,
      "의원이": 5457,
      "이건": 5458,
      "이끌": 5459,
      "이념": 5460,
      "이루": 5461,
      "이륙": 5462,
      "이의": 5463,
      "이중": 5464,
      "이철": 5465,
      "이틀": 5466,
      "이사회": 5467,
      "이들은": 5468,
      "이사는": 5469,
      "이들을": 5470,
      "이것을": 5471,
      "이었던": 5472,
      "이노베": 5473,
      "이바지": 5474,
      "인권": 5475,
      "인근": 5476,
      "인적": 5477,
      "인한": 5478,
      "인원을": 5479,
      "인기를": 5480,
      "인스크": 5481,
      "인센티브": 5482,
      "일각": 5483,
      "일론": 5484,
      "일환": 5485,
      "일하고": 5486,
      "일수록": 5487,
      "일원화": 5488,
      "읽기": 5489,
      "임이": 5490,
      "입력": 5491,
      "입원": 5492,
      "있습니다": 5493,
      "자도": 5494,
      "자존": 5495,
      "자들에게": 5496,
      "잠수함": 5497,
      "잡고": 5498,
      "장에게": 5499,
      "장점은": 5500,
      "재한": 5501,
      "재도약": 5502,
      "재규어": 5503,
      "저는": 5504,
      "저커": 5505,
      "저하": 5506,
      "저화질": 5507,
      "적어": 5508,
      "적의": 5509,
      "적층": 5510,
      "적이고": 5511,
      "전도": 5512,
      "전송": 5513,
      "전신": 5514,
      "전창": 5515,
      "전에서": 5516,
      "절대": 5517,
      "절실": 5518,
      "점유": 5519,
      "점들을": 5520,
      "접촉": 5521,
      "정기": 5522,
      "정식": 5523,
      "제1": 5524,
      "제에선": 5525,
      "제1회": 5526,
      "제주지": 5527,
      "조례": 5528,
      "좁아": 5529,
      "종사": 5530,
      "종의": 5531,
      "주거": 5532,
      "주기": 5533,
      "주문": 5534,
      "주어": 5535,
      "주주": 5536,
      "주최": 5537,
      "줄이": 5538,
      "줄일": 5539,
      "줄이고": 5540,
      "줄였다": 5541,
      "중간": 5542,
      "중등": 5543,
      "중복": 5544,
      "중부": 5545,
      "즐겁": 5546,
      "즐기는": 5547,
      "지게": 5548,
      "지냈": 5549,
      "지방": 5550,
      "지배": 5551,
      "지분": 5552,
      "지하": 5553,
      "지향": 5554,
      "지휘": 5555,
      "지사가": 5556,
      "지른다": 5557,
      "진보": 5558,
      "진척": 5559,
      "진해": 5560,
      "진보를": 5561,
      "진정한": 5562,
      "질서": 5563,
      "집속": 5564,
      "집품": 5565,
      "짧은": 5566,
      "차원": 5567,
      "착취": 5568,
      "책을": 5569,
      "챌린": 5570,
      "처방": 5571,
      "처장": 5572,
      "첫째": 5573,
      "체를": 5574,
      "촉하는": 5575,
      "총생산": 5576,
      "최경": 5577,
      "최후": 5578,
      "최우수": 5579,
      "추세": 5580,
      "추어": 5581,
      "축소": 5582,
      "출결": 5583,
      "출고": 5584,
      "출신": 5585,
      "출원": 5586,
      "출입": 5587,
      "출판": 5588,
      "출원이": 5589,
      "취재": 5590,
      "취합": 5591,
      "측정": 5592,
      "층을": 5593,
      "캘리포": 5594,
      "캠프": 5595,
      "커머": 5596,
      "커질": 5597,
      "컨트": 5598,
      "컨벤션": 5599,
      "코드를": 5600,
      "콤넷": 5601,
      "쿠파": 5602,
      "키트": 5603,
      "타격": 5604,
      "탄도": 5605,
      "탈원": 5606,
      "탈진": 5607,
      "테고": 5608,
      "토피": 5609,
      "토픽": 5610,
      "퇴행": 5611,
      "특기자": 5612,
      "파일": 5613,
      "판정": 5614,
      "팔로워": 5615,
      "패키": 5616,
      "패러다": 5617,
      "퍼지는": 5618,
      "편이": 5619,
      "편평": 5620,
      "편이다": 5621,
      "폐플라스틱": 5622,
      "포항": 5623,
      "퓨처": 5624,
      "프롭테크": 5625,
      "플래": 5626,
      "피비": 5627,
      "피사체": 5628,
      "필을": 5629,
      "필진": 5630,
      "하곤": 5631,
      "하긴": 5632,
      "하되": 5633,
      "하라": 5634,
      "하이터": 5635,
      "하였다": 5636,
      "한번": 5637,
      "한의": 5638,
      "한쪽": 5639,
      "합동": 5640,
      "해볼": 5641,
      "해졌": 5642,
      "해지고": 5643,
      "해서는": 5644,
      "핵추진": 5645,
      "행사를": 5646,
      "행사에": 5647,
      "향상을": 5648,
      "허리가": 5649,
      "현행": 5650,
      "현상을": 5651,
      "혜화": 5652,
      "호스": 5653,
      "혼합": 5654,
      "화에": 5655,
      "확실": 5656,
      "환자가": 5657,
      "황당한": 5658,
      "회계": 5659,
      "회로": 5660,
      "회사가": 5661,
      "후보다": 5662,
      "훼손": 5663,
      "하는가": 5664,
      "기술개발": 5665,
      "기술력을": 5666,
      "기술총괄": 5667,
      "인공지능으로": 5668,
      "인공지능혁신": 5669,
      "인공지능윤리": 5670,
      "2050": 5671,
      "교육도": 5672,
      "교육에": 5673,
      "교육사업": 5674,
      "개발해": 5675,
      "개발한다": 5676,
      "연구는": 5677,
      "연구할": 5678,
      "연구책임": 5679,
      "대학과": 5680,
      "대학을": 5681,
      "대학의": 5682,
      "대학들은": 5683,
      "대학기본": 5684,
      "대학캠퍼스": 5685,
      "제공하고": 5686,
      "이라도": 5687,
      "까지다": 5688,
      "한국에": 5689,
      "한국이": 5690,
      "한국에서": 5691,
      "한국전자": 5692,
      "한국언론진흥재단": 5693,
      "한국인공지능윤리": 5694,
      "산업과": 5695,
      "산업부": 5696,
      "산업은": 5697,
      "산업의": 5698,
      "학생전형": 5699,
      "스마트골프": 5700,
      "스마트스토": 5701,
      "스마트병동": 5702,
      "된다고": 5703,
      "전형별": 5704,
      "전형의": 5705,
      "전형이": 5706,
      "전형에서": 5707,
      "서비스가": 5708,
      "서비스도": 5709,
      "서비스로": 5710,
      "서비스의": 5711,
      "서비스에서": 5712,
      "대표에게": 5713,
      "대표적인": 5714,
      "사업단": 5715,
      "사업이": 5716,
      "사업이다": 5717,
      "1980년대": 5718,
      "기업은": 5719,
      "기업을": 5720,
      "기업이": 5721,
      "기업이다": 5722,
      "기업들도": 5723,
      "우리나라는": 5724,
      "소득세": 5725,
      "소득세를": 5726,
      "소득재분배": 5727,
      "분야에선": 5728,
      "데이터가": 5729,
      "가능할": 5730,
      "가능하며": 5731,
      "학과로": 5732,
      "학과와": 5733,
      "사회와": 5734,
      "사회학과": 5735,
      "활용이": 5736,
      "활용하고": 5737,
      "정보도": 5738,
      "면서도": 5739,
      "미래당": 5740,
      "미래형": 5741,
      "미래사회를": 5742,
      "시장에서": 5743,
      "교수를": 5744,
      "교수와": 5745,
      "교수진": 5746,
      "서울청": 5747,
      "세계가": 5748,
      "사람을": 5749,
      "사람일": 5750,
      "사람들의": 5751,
      "시간과": 5752,
      "기반이": 5753,
      "기반한": 5754,
      "투자로": 5755,
      "투자에": 5756,
      "과정에": 5757,
      "됐다는": 5758,
      "게임을": 5759,
      "인도에": 5760,
      "정책연구소": 5761,
      "필요할": 5762,
      "문제점들을": 5763,
      "시스템과": 5764,
      "이용훈": 5765,
      "이용자가": 5766,
      "이용하여": 5767,
      "혁신은": 5768,
      "들어갔다": 5769,
      "2024년": 5770,
      "국내에서": 5771,
      "국내총생산": 5772,
      "지역혁신": 5773,
      "지역균형": 5774,
      "대구의": 5775,
      "대구형": 5776,
      "대구지역": 5777,
      "평가에서": 5778,
      "평가했다": 5779,
      "평가한다": 5780,
      "평가된다": 5781,
      "분석한": 5782,
      "분석이다": 5783,
      "올해로": 5784,
      "학습에": 5785,
      "학습은": 5786,
      "학습을": 5787,
      "학습이": 5788,
      "학습자": 5789,
      "정부서울청": 5790,
      "업체들의": 5791,
      "업체들을": 5792,
      "운영을": 5793,
      "운영하여": 5794,
      "인간에게": 5795,
      "중개는": 5796,
      "중개업": 5797,
      "중개시장을": 5798,
      "협력이": 5799,
      "협력해": 5800,
      "협력하고": 5801,
      "000명을": 5802,
      "노동계": 5803,
      "노동법": 5804,
      "노동의": 5805,
      "모두에게": 5806,
      "것이고": 5807,
      "30개": 5808,
      "30명": 5809,
      "30억": 5810,
      "제도의": 5811,
      "기자재": 5812,
      "전공과": 5813,
      "전공한": 5814,
      "채용설명": 5815,
      "채용전환": 5816,
      "경쟁력": 5817,
      "경쟁률": 5818,
      "경쟁의": 5819,
      "생각을": 5820,
      "생각하는": 5821,
      "생각이다": 5822,
      "생각하면": 5823,
      "전자공학": 5824,
      "진행할": 5825,
      "진행하는": 5826,
      "진행된다": 5827,
      "사용하기": 5828,
      "사용되는": 5829,
      "현대모터": 5830,
      "현대모비스": 5831,
      "경제학과": 5832,
      "제품총괄": 5833,
      "통신망": 5834,
      "통신연구원": 5835,
      "2015년": 5836,
      "2011년": 5837,
      "강화할": 5838,
      "강화하고": 5839,
      "강화한다": 5840,
      "구축하고": 5841,
      "빅데이터를": 5842,
      "예측을": 5843,
      "기본소득의": 5844,
      "대해서는": 5845,
      "설계도": 5846,
      "설계됐다": 5847,
      "신설된": 5848,
      "신설한다": 5849,
      "자율성": 5850,
      "공개한": 5851,
      "국가장학금을": 5852,
      "기준에": 5853,
      "구조가": 5854,
      "구조에": 5855,
      "구조의": 5856,
      "모델인": 5857,
      "인상을": 5858,
      "전략에": 5859,
      "전략사업에": 5860,
      "연구원의": 5861,
      "KT융합기술": 5862,
      "KT대구경북": 5863,
      "수준에": 5864,
      "직원들의": 5865,
      "플랫폼은": 5866,
      "예산은": 5867,
      "대상을": 5868,
      "시작된": 5869,
      "시작으로": 5870,
      "이어진": 5871,
      "정치분석": 5872,
      "현실로": 5873,
      "결과가": 5874,
      "경우가": 5875,
      "규모다": 5876,
      "물류센터에서": 5877,
      "국제중": 5878,
      "이미지를": 5879,
      "인식을": 5880,
      "인식이": 5881,
      "현재는": 5882,
      "현재까지": 5883,
      "확대하고": 5884,
      "4차산업": 5885,
      "구성된": 5886,
      "구성원": 5887,
      "구성됐다": 5888,
      "위원장을": 5889,
      "중요하지만": 5890,
      "참여를": 5891,
      "효율이": 5892,
      "효율적": 5893,
      "적용된": 5894,
      "적용된다": 5895,
      "제조업": 5896,
      "대통령제": 5897,
      "가지가": 5898,
      "가지고": 5899,
      "가지다": 5900,
      "가지로": 5901,
      "대비하는": 5902,
      "번째로": 5903,
      "양성하고": 5904,
      "위험성과": 5905,
      "위험수당": 5906,
      "주택자": 5907,
      "포함하는": 5908,
      "1117": 5909,
      "50대": 5910,
      "50만": 5911,
      "그룹의": 5912,
      "반영이": 5913,
      "반영해": 5914,
      "반영되지": 5915,
      "생활권": 5916,
      "전체를": 5917,
      "증가하고": 5918,
      "증가한다": 5919,
      "하나로": 5920,
      "하나의": 5921,
      "넘어가": 5922,
      "대응이": 5923,
      "변화하는": 5924,
      "선택적": 5925,
      "선택제": 5926,
      "선택할": 5927,
      "역량이": 5928,
      "강조한": 5929,
      "네이버는": 5930,
      "요구액": 5931,
      "요구에": 5932,
      "요구했다": 5933,
      "지금보다": 5934,
      "첫인상이": 5935,
      "학년은": 5936,
      "전문가로": 5937,
      "전문가들이": 5938,
      "자율주행을": 5939,
      "자율주행차": 5940,
      "15일": 5941,
      "결정을": 5942,
      "결정된다": 5943,
      "공정을": 5944,
      "마련했다": 5945,
      "마련하고": 5946,
      "보고자": 5947,
      "생산하는": 5948,
      "의미다": 5949,
      "화재를": 5950,
      "프로젝트에": 5951,
      "온라인으로": 5952,
      "자체적으로": 5953,
      "치료를": 5954,
      "회의실에서": 5955,
      "2003년": 5956,
      "40억": 5957,
      "경영자": 5958,
      "경영학": 5959,
      "관리하는": 5960,
      "방향을": 5961,
      "방향에서": 5962,
      "은행과": 5963,
      "의료정보": 5964,
      "공간도": 5965,
      "공간에": 5966,
      "면접평가": 5967,
      "면접고사": 5968,
      "소설을": 5969,
      "소설의": 5970,
      "연계한": 5971,
      "최고과학기술": 5972,
      "최고경영자": 5973,
      "해결을": 5974,
      "해결해야": 5975,
      "가치와": 5976,
      "거래가": 5977,
      "목표로": 5978,
      "방법으로": 5979,
      "부회장": 5980,
      "일본의": 5981,
      "중국이": 5982,
      "진단하는": 5983,
      "능력이": 5984,
      "대출을": 5985,
      "라우드커뮤니": 5986,
      "성장에": 5987,
      "세포가": 5988,
      "수수료가": 5989,
      "업계가": 5990,
      "업계에": 5991,
      "영국과": 5992,
      "이유로": 5993,
      "이유를": 5994,
      "전망이": 5995,
      "통합형": 5996,
      "혜택이": 5997,
      "교육부가": 5998,
      "교육부와": 5999,
      "삼성전자에서": 6000,
      "미사일이": 6001,
      "인력양성": 6002,
      "주장이다": 6003,
      "연구소장": 6004,
      "연구소에서": 6005,
      "국회에서": 6006,
      "대화의": 6007,
      "성능이": 6008,
      "소개서": 6009,
      "안전성": 6010,
      "이해를": 6011,
      "회사인": 6012,
      "국민의당": 6013,
      "구현모": 6014,
      "뛰어난": 6015,
      "비전을": 6016,
      "비전으로": 6017,
      "선정돼": 6018,
      "선정됐다": 6019,
      "실험동물": 6020,
      "안정을": 6021,
      "안정적인": 6022,
      "음성으로": 6023,
      "적극적인": 6024,
      "졸업한": 6025,
      "지속적으로": 6026,
      "취업트랙": 6027,
      "행정학과": 6028,
      "80만": 6029,
      "9단이": 6030,
      "가까이": 6031,
      "고려대": 6032,
      "논술전형은": 6033,
      "배우고": 6034,
      "부가가치": 6035,
      "설립된": 6036,
      "설립을": 6037,
      "유치를": 6038,
      "이동하고": 6039,
      "이동통신": 6040,
      "이전의": 6041,
      "자에게서": 6042,
      "진압하는": 6043,
      "필요하다는": 6044,
      "개념도": 6045,
      "근무를": 6046,
      "기록한": 6047,
      "디자인은": 6048,
      "무엇인가": 6049,
      "시연에선": 6050,
      "언급될": 6051,
      "영역을": 6052,
      "자격을": 6053,
      "존재하는": 6054,
      "테스트를": 6055,
      "토지세는": 6056,
      "SW융합대학": 6057,
      "거주자": 6058,
      "고민하는": 6059,
      "고민하고": 6060,
      "과목을": 6061,
      "드로젠": 6062,
      "반응이": 6063,
      "배송을": 6064,
      "상대방이": 6065,
      "선도하는": 6066,
      "선도대학": 6067,
      "셧다운제를": 6068,
      "수상했다": 6069,
      "신입생": 6070,
      "신입행": 6071,
      "안내한다": 6072,
      "패권의": 6073,
      "부문에서는": 6074,
      "사고가": 6075,
      "수요가": 6076,
      "수요에": 6077,
      "에어컨": 6078,
      "에어팟": 6079,
      "예상된다": 6080,
      "예상되는": 6081,
      "주목을": 6082,
      "주차유도": 6083,
      "하이테크": 6084,
      "하이드로젠": 6085,
      "수시모집에서": 6086,
      "UNIST는": 6087,
      "21세기": 6088,
      "경선준비": 6089,
      "관심이": 6090,
      "규제샌드박스": 6091,
      "녹내장": 6092,
      "단순히": 6093,
      "대전신세계": 6094,
      "도약하고": 6095,
      "무기체계": 6096,
      "미디어콘텐츠": 6097,
      "민주주의": 6098,
      "방사청": 6099,
      "보호자": 6100,
      "않아도": 6101,
      "언론사": 6102,
      "접근이": 6103,
      "투입해": 6104,
      "화학공학과": 6105,
      "기간을": 6106,
      "내놓고": 6107,
      "내놓은": 6108,
      "내놓을": 6109,
      "본격적인": 6110,
      "여성가족": 6111,
      "입장이다": 6112,
      "자산이": 6113,
      "전통적": 6114,
      "정의에": 6115,
      "정해진": 6116,
      "제기했다": 6117,
      "체육교육과": 6118,
      "촬영물": 6119,
      "카메라로": 6120,
      "행동주의": 6121,
      "향상과": 6122,
      "확률이": 6123,
      "확률형": 6124,
      "현대차그룹은": 6125,
      "나선다": 6126,
      "나선다고": 6127,
      "논란의": 6128,
      "대부분의": 6129,
      "떨어진": 6130,
      "마음이": 6131,
      "범죄위험": 6132,
      "부작용이": 6133,
      "비중을": 6134,
      "사실이다": 6135,
      "쇼핑을": 6136,
      "알려진": 6137,
      "요소를": 6138,
      "자연스레": 6139,
      "장학금": 6140,
      "조금만": 6141,
      "충분히": 6142,
      "판단하고": 6143,
      "학업성적": 6144,
      "지원하고자": 6145,
      "세종시가": 6146,
      "세종시의회": 6147,
      "특성화고": 6148,
      "폴리텍대는": 6149,
      "모니터링하는": 6150,
      "CNS는": 6151,
      "고화질의": 6152,
      "높아지고": 6153,
      "디스플레": 6154,
      "받았고": 6155,
      "사례를": 6156,
      "선보이는": 6157,
      "신청을": 6158,
      "아마존": 6159,
      "이내에": 6160,
      "인하대는": 6161,
      "제한하는": 6162,
      "진흥원": 6163,
      "특징은": 6164,
      "합의가": 6165,
      "학생부교과전형이": 6166,
      "CS글로벌선진학교": 6167,
      "ics": 6168,
      "가르쳐": 6169,
      "관점과": 6170,
      "구체적으로": 6171,
      "구체적인": 6172,
      "기법을": 6173,
      "사무실에서": 6174,
      "수치다": 6175,
      "실패를": 6176,
      "않을까": 6177,
      "역사적": 6178,
      "울산과학기술원": 6179,
      "유사하다": 6180,
      "자기소개서": 6181,
      "정리된다": 6182,
      "창출을": 6183,
      "늘어난다": 6184,
      "스마트제조융합전공은": 6185,
      "신용등급을": 6186,
      "신용등급이": 6187,
      "수성구청": 6188,
      "녹취록을": 6189,
      "3차원": 6190,
      "CPU": 6191,
      "ded": 6192,
      "감지해": 6193,
      "계약직": 6194,
      "그림자가": 6195,
      "늘린다는": 6196,
      "단위로": 6197,
      "바른미래당": 6198,
      "방안도": 6199,
      "벌어지고": 6200,
      "시야가": 6201,
      "어디서": 6202,
      "얼굴정보": 6203,
      "연락이": 6204,
      "이재명": 6205,
      "이재용": 6206,
      "입주할": 6207,
      "제습기": 6208,
      "스마트기기": 6209,
      "DL이앤씨": 6210,
      "DL이앤씨는": 6211,
      "누군가에게": 6212,
      "우수자전형과": 6213,
      "CCTV나": 6214,
      "CJ온스타": 6215,
      "MBUX": 6216,
      "고양에서": 6217,
      "교양을": 6218,
      "극복할": 6219,
      "나누는": 6220,
      "들여다봤다": 6221,
      "명예훼손": 6222,
      "사건이": 6223,
      "시술이": 6224,
      "여기서": 6225,
      "온도조절": 6226,
      "유니스트": 6227,
      "유니콤넷": 6228,
      "이익을": 6229,
      "일관성": 6230,
      "제2의": 6231,
      "2030년까지": 6232,
      "교육혁신안을": 6233,
      "중개인은": 6234,
      "4차산업혁명시대의": 6235,
      "뛰어넘을": 6236,
      "기계공학부": 6237,
      "생체신호를": 6238,
      "카이스트에서": 6239,
      "고른기회전형": 6240,
      "금오공대": 6241,
      "SK텔레콤과": 6242,
      "47톤": 6243,
      "LED": 6244,
      "그린스마트": 6245,
      "기후변화": 6246,
      "대대적으로": 6247,
      "동일한": 6248,
      "두개골": 6249,
      "마법사": 6250,
      "미치지": 6251,
      "부정적": 6252,
      "사학으로": 6253,
      "상관관계를": 6254,
      "스쿨존": 6255,
      "아닐까": 6256,
      "없애고": 6257,
      "오커스": 6258,
      "완성차": 6259,
      "인쇄형": 6260,
      "재난지원금을": 6261,
      "전투기": 6262,
      "차지하는": 6263,
      "체인저": 6264,
      "추출해": 6265,
      "폐쇄회로": 6266,
      "한마디로": 6267,
      "휴게실": 6268,
      "기술패권경쟁": 6269,
      "대표이사직": 6270,
      "2023년까지": 6271,
      "GS칼텍스": 6272,
      "A20210915": 6273,
      "12일까지": 6274,
      "DGB대구은행": 6275,
      "iX5": 6276,
      "고령층": 6277,
      "공론화": 6278,
      "과도한": 6279,
      "군집드론": 6280,
      "김형민": 6281,
      "눈길을": 6282,
      "돌발상황": 6283,
      "똑똑한": 6284,
      "많을수록": 6285,
      "발견하기": 6286,
      "스탠리": 6287,
      "스튜디오": 6288,
      "시켰다": 6289,
      "엄청난": 6290,
      "원천기술을": 6291,
      "위성통신": 6292,
      "위협이": 6293,
      "융기원": 6294,
      "적합한": 6295,
      "정규직": 6296,
      "제일브레이": 6297,
      "차별적": 6298,
      "철저하게": 6299,
      "케이션즈": 6300,
      "콘셉트카": 6301,
      "편향성": 6302,
      "프랑스": 6303,
      "학술지": 6304,
      "화성시": 6305,
      "화합물": 6306,
      "힘들어요": 6307,
      "교육감은": 6308,
      "GS리테일은": 6309,
      "프로그래밍": 6310,
      "CPO는": 6311,
      "프레임워크를": 6312,
      "소화약제를": 6313,
      "CNN": 6314,
      "GVCS글로벌선진학교": 6315,
      "MOU": 6316,
      "가석방": 6317,
      "강제적": 6318,
      "개설해": 6319,
      "공무원": 6320,
      "김혜련": 6321,
      "돌연변": 6322,
      "랜드로버코리아": 6323,
      "마포구": 6324,
      "메르세데스": 6325,
      "명확히": 6326,
      "배포할": 6327,
      "버추얼": 6328,
      "서판길": 6329,
      "선인국제중": 6330,
      "소아마비": 6331,
      "순차적으로": 6332,
      "아일랜드": 6333,
      "엔지니어": 6334,
      "오즈의": 6335,
      "유튜버": 6336,
      "윤종록": 6337,
      "의향이": 6338,
      "이철원": 6339,
      "이노베이션": 6340,
      "인스크립션": 6341,
      "재규어랜드로버코리아": 6342,
      "전창배": 6343,
      "컨트롤": 6344,
      "퇴행성": 6345,
      "편평세포": 6346,
      "하이터치": 6347,
      "혜화1117": 6348,
      "인공지능혁신파크": 6349,
      "연구책임자": 6350,
      "대학기본역량진단": 6351,
      "한국전자통신연구원": 6352,
      "한국인공지능윤리협회": 6353,
      "스마트골프클럽": 6354,
      "스마트스토어": 6355,
      "지역균형선발": 6356,
      "채용전환형": 6357,
      "현대모터스튜디오": 6358,
      "KT융합기술원에서": 6359,
      "KT대구경북광역본부": 6360,
      "라우드커뮤니케이션즈": 6361,
      "여성가족부": 6362,
      "제일브레이크": 6363,
      "\"'": 6364,
      "+)": 6365,
      "1명": 6366,
      "1시": 6367,
      "1초": 6368,
      "1호": 6369,
      "160": 6370,
      "1명이": 6371,
      "16일": 6372,
      "12개": 6373,
      "29": 6374,
      "2주": 6375,
      "2층": 6376,
      "250": 6377,
      "216": 6378,
      "31": 6379,
      "3단": 6380,
      "3대": 6381,
      "3도": 6382,
      "3만": 6383,
      "3분": 6384,
      "3으로": 6385,
      "3명을": 6386,
      "3세대": 6387,
      "3가지": 6388,
      "3지구": 6389,
      "42": 6390,
      "48": 6391,
      "49": 6392,
      "4도": 6393,
      "4족": 6394,
      "4호": 6395,
      "418": 6396,
      "43명": 6397,
      "4배수를": 6398,
      "4생활권": 6399,
      "52": 6400,
      "53": 6401,
      "54": 6402,
      "5D": 6403,
      "5개": 6404,
      "5분": 6405,
      "5명이": 6406,
      "62": 6407,
      "63": 6408,
      "65": 6409,
      "66": 6410,
      "6명": 6411,
      "6억": 6412,
      "6리터": 6413,
      "71": 6414,
      "74": 6415,
      "79": 6416,
      "700억": 6417,
      "82": 6418,
      "88": 6419,
      "800": 6420,
      "8명을": 6421,
      "91": 6422,
      "92": 6423,
      "9시": 6424,
      "9억": 6425,
      "918": 6426,
      "9개월": 6427,
      "946": 6428,
      "?'": 6429,
      "?...": 6430,
      "AB": 6431,
      "AM": 6432,
      "AN": 6433,
      "AS": 6434,
      "ACE": 6435,
      "ACS": 6436,
      "B5": 6437,
      "B6": 6438,
      "BL": 6439,
      "BT": 6440,
      "Bo": 6441,
      "B11": 6442,
      "Blen": 6443,
      "CV": 6444,
      "Ch": 6445,
      "Com": 6446,
      "CGT": 6447,
      "EU": 6448,
      "FA": 6449,
      "FC": 6450,
      "GI": 6451,
      "GP": 6452,
      "GU": 6453,
      "G20": 6454,
      "GBM": 6455,
      "HR": 6456,
      "Hig": 6457,
      "IC": 6458,
      "IM": 6459,
      "IP": 6460,
      "In": 6461,
      "LC": 6462,
      "LH": 6463,
      "LO": 6464,
      "LP": 6465,
      "LS": 6466,
      "LCC": 6467,
      "Lig": 6468,
      "LMS": 6469,
      "MZ": 6470,
      "M인": 6471,
      "Man": 6472,
      "MAP": 6473,
      "NU": 6474,
      "NIT": 6475,
      "NFA": 6476,
      "OP": 6477,
      "Op": 6478,
      "PET": 6479,
      "PBL": 6480,
      "PLC": 6481,
      "RB": 6482,
      "Res": 6483,
      "Sc": 6484,
      "Sy": 6485,
      "SPC": 6486,
      "TMAP": 6487,
      "XG": 6488,
      "ad": 6489,
      "ar": 6490,
      "ain": 6491,
      "ation": 6492,
      "ch": 6493,
      "dk": 6494,
      "em": 6495,
      "et": 6496,
      "for": 6497,
      "is": 6498,
      "ips": 6499,
      "ienc": 6500,
      "jea": 6501,
      "kr": 6502,
      "lo": 6503,
      "learning": 6504,
      "mol": 6505,
      "ov": 6506,
      "ost": 6507,
      "ral": 6508,
      "th": 6509,
      "to": 6510,
      "tain": 6511,
      "un": 6512,
      "ve": 6513,
      "wa": 6514,
      "wor": 6515,
      "·㈜": 6516,
      "“‘": 6517,
      "ㆍ고": 6518,
      "獸魂": 6519,
      "가가": 6520,
      "가공": 6521,
      "가기": 6522,
      "가난": 6523,
      "가전": 6524,
      "가천": 6525,
      "가칭": 6526,
      "가폴": 6527,
      "가졌다": 6528,
      "가수가": 6529,
      "가이드": 6530,
      "가니스": 6531,
      "간과": 6532,
      "간병": 6533,
      "간은": 6534,
      "간이": 6535,
      "간단한": 6536,
      "갇혀": 6537,
      "갈등": 6538,
      "갈수록": 6539,
      "감과": 6540,
      "감내": 6541,
      "감자": 6542,
      "감축": 6543,
      "감형": 6544,
      "감으로": 6545,
      "감정을": 6546,
      "값도": 6547,
      "강국": 6548,
      "강도": 6549,
      "강력": 6550,
      "강의": 6551,
      "강했다": 6552,
      "강하게": 6553,
      "갖게": 6554,
      "갖출": 6555,
      "갖는다": 6556,
      "같아": 6557,
      "개를": 6558,
      "개방": 6559,
      "개헌": 6560,
      "개인이": 6561,
      "개개인의": 6562,
      "거기": 6563,
      "거대": 6564,
      "거든": 6565,
      "거로": 6566,
      "거라고": 6567,
      "거리를": 6568,
      "거두고": 6569,
      "거노인": 6570,
      "거점으로": 6571,
      "걱정": 6572,
      "건비": 6573,
      "건이": 6574,
      "건조": 6575,
      "건전한": 6576,
      "건스탠리": 6577,
      "걸까": 6578,
      "걸린": 6579,
      "걸쳐": 6580,
      "걸친": 6581,
      "걸었다": 6582,
      "검색": 6583,
      "검진": 6584,
      "검찰": 6585,
      "검사를": 6586,
      "것만": 6587,
      "것의": 6588,
      "것인가": 6589,
      "게재": 6590,
      "겨울": 6591,
      "격을": 6592,
      "격탄": 6593,
      "겪은": 6594,
      "결론": 6595,
      "결손": 6596,
      "결제": 6597,
      "겸임": 6598,
      "겹눈으로": 6599,
      "경림": 6600,
      "경찰": 6601,
      "경호": 6602,
      "경기대": 6603,
      "경계를": 6604,
      "경두개": 6605,
      "계좌": 6606,
      "계기가": 6607,
      "고에": 6608,
      "고영": 6609,
      "고집": 6610,
      "고소득": 6611,
      "고사가": 6612,
      "고인이": 6613,
      "고대에서": 6614,
      "고유의": 6615,
      "곤란": 6616,
      "곧바로": 6617,
      "골탈": 6618,
      "곳곳에": 6619,
      "공감": 6620,
      "공기": 6621,
      "공단": 6622,
      "공략": 6623,
      "공언": 6624,
      "공업": 6625,
      "공적": 6626,
      "공존": 6627,
      "공주": 6628,
      "공청": 6629,
      "공자는": 6630,
      "공사는": 6631,
      "공장을": 6632,
      "공과대학": 6633,
      "공고를": 6634,
      "과는": 6635,
      "과장": 6636,
      "과학과": 6637,
      "관제": 6638,
      "관측": 6639,
      "관학": 6640,
      "관행": 6641,
      "관에서": 6642,
      "관점을": 6643,
      "광다": 6644,
      "교도": 6645,
      "교류": 6646,
      "교재": 6647,
      "구가": 6648,
      "구도": 6649,
      "구매": 6650,
      "구석": 6651,
      "구심": 6652,
      "구에": 6653,
      "구역": 6654,
      "구원": 6655,
      "구좌": 6656,
      "구지": 6657,
      "구했다": 6658,
      "구성을": 6659,
      "구성과": 6660,
      "구인구": 6661,
      "국산": 6662,
      "국을": 6663,
      "국익": 6664,
      "국제공": 6665,
      "국장은": 6666,
      "국장이": 6667,
      "군비": 6668,
      "군산": 6669,
      "권과": 6670,
      "권위": 6671,
      "권장": 6672,
      "권했다": 6673,
      "권리를": 6674,
      "궤도": 6675,
      "궤도를": 6676,
      "규범": 6677,
      "그것": 6678,
      "그냥": 6679,
      "그려": 6680,
      "그리": 6681,
      "그중": 6682,
      "그에게": 6683,
      "그들은": 6684,
      "그리는": 6685,
      "그랜드": 6686,
      "근본": 6687,
      "근속": 6688,
      "근절": 6689,
      "금리를": 6690,
      "급속": 6691,
      "급을": 6692,
      "급감으로": 6693,
      "기금": 6694,
      "기다": 6695,
      "기상": 6696,
      "기숙": 6697,
      "기시": 6698,
      "기타": 6699,
      "기형": 6700,
      "기기를": 6701,
      "기사가": 6702,
      "긴장": 6703,
      "길래": 6704,
      "길환": 6705,
      "김범": 6706,
      "김예": 6707,
      "김진": 6708,
      "김진욱": 6709,
      "김대권": 6710,
      "깊숙": 6711,
      "까다": 6712,
      "까닭": 6713,
      "깨끗": 6714,
      "깨침": 6715,
      "꼼꼼": 6716,
      "꿈과": 6717,
      "끄러": 6718,
      "끝난": 6719,
      "끝에": 6720,
      "끼기": 6721,
      "나경": 6722,
      "나눌": 6723,
      "나뉘": 6724,
      "나다": 6725,
      "나빠": 6726,
      "나쁜": 6727,
      "나설": 6728,
      "나지": 6729,
      "난제": 6730,
      "날씨": 6731,
      "날리는": 6732,
      "낡은": 6733,
      "남권": 6734,
      "남성": 6735,
      "남시": 6736,
      "남이": 6737,
      "남지역": 6738,
      "남기고": 6739,
      "남았죠": 6740,
      "납득": 6741,
      "낫다고": 6742,
      "났기": 6743,
      "났다는": 6744,
      "났는데": 6745,
      "낭비": 6746,
      "낮출": 6747,
      "내과": 6748,
      "내기": 6749,
      "내달": 6750,
      "내려": 6751,
      "내세": 6752,
      "내셔": 6753,
      "내와": 6754,
      "내에서": 6755,
      "내리는": 6756,
      "내다봤다": 6757,
      "넌스": 6758,
      "네버": 6759,
      "년층": 6760,
      "노무": 6761,
      "노부": 6762,
      "노후": 6763,
      "노력을": 6764,
      "노이에": 6765,
      "노하우": 6766,
      "노년층": 6767,
      "녹음": 6768,
      "논어": 6769,
      "논문을": 6770,
      "논리적": 6771,
      "농어": 6772,
      "높기": 6773,
      "높일": 6774,
      "높이는": 6775,
      "뇌에": 6776,
      "뇌의": 6777,
      "뇌질환": 6778,
      "뇌파로": 6779,
      "누진": 6780,
      "누적으로": 6781,
      "눈높": 6782,
      "뉘앙": 6783,
      "느낀": 6784,
      "느니": 6785,
      "느리": 6786,
      "는다는": 6787,
      "는지를": 6788,
      "늘리는": 6789,
      "늘리고": 6790,
      "능대": 6791,
      "늦게": 6792,
      "니아주": 6793,
      "니하게도": 6794,
      "다K": 6795,
      "다니": 6796,
      "다당": 6797,
      "다듬": 6798,
      "다룬": 6799,
      "다룰": 6800,
      "다뤄": 6801,
      "다리": 6802,
      "다섯": 6803,
      "다쏘": 6804,
      "다품": 6805,
      "다행": 6806,
      "다이내": 6807,
      "다성분": 6808,
      "단기": 6809,
      "단적으로": 6810,
      "단단한": 6811,
      "달간": 6812,
      "달러": 6813,
      "달아": 6814,
      "달해": 6815,
      "달라는": 6816,
      "담긴": 6817,
      "담을": 6818,
      "답한": 6819,
      "닷새": 6820,
      "당길": 6821,
      "당뇨": 6822,
      "당부": 6823,
      "당할": 6824,
      "대거": 6825,
      "대결": 6826,
      "대기": 6827,
      "대여": 6828,
      "대필": 6829,
      "대국민": 6830,
      "대도시": 6831,
      "대장을": 6832,
      "대유행": 6833,
      "대서양": 6834,
      "더엣": 6835,
      "더모아": 6836,
      "던져": 6837,
      "던진다": 6838,
      "덩달아": 6839,
      "데다가": 6840,
      "도달": 6841,
      "도도": 6842,
      "도착": 6843,
      "도쿄": 6844,
      "독립": 6845,
      "독특": 6846,
      "독거노인": 6847,
      "돌파": 6848,
      "동결": 6849,
      "동등": 6850,
      "동료": 6851,
      "동반": 6852,
      "동원": 6853,
      "동작": 6854,
      "동화": 6855,
      "동에서": 6856,
      "동남권": 6857,
      "돼야": 6858,
      "돼요": 6859,
      "됐죠": 6860,
      "됐으며": 6861,
      "됐으면": 6862,
      "됐습니다": 6863,
      "되게": 6864,
      "되리": 6865,
      "되었": 6866,
      "되도록": 6867,
      "되더라도": 6868,
      "될까": 6869,
      "될지": 6870,
      "두호": 6871,
      "뒤를": 6872,
      "뒤늦게": 6873,
      "뒷편": 6874,
      "드림": 6875,
      "드와": 6876,
      "듣고": 6877,
      "들일": 6878,
      "들이다": 6879,
      "들면서": 6880,
      "들었다": 6881,
      "들리는": 6882,
      "등은": 6883,
      "등에서도": 6884,
      "디코더": 6885,
      "따로": 6886,
      "땅값": 6887,
      "때가": 6888,
      "똑같은": 6889,
      "띈다": 6890,
      "라면서": 6891,
      "란드": 6892,
      "란로": 6893,
      "란장을": 6894,
      "람회": 6895,
      "랑하는": 6896,
      "래식": 6897,
      "램제": 6898,
      "랩장은": 6899,
      "랩2050": 6900,
      "랫동안": 6901,
      "랬다": 6902,
      "러니하게도": 6903,
      "레븐": 6904,
      "레스": 6905,
      "레이터": 6906,
      "렌디": 6907,
      "로는": 6908,
      "로운": 6909,
      "로의": 6910,
      "로부터": 6911,
      "로지는": 6912,
      "로블록": 6913,
      "론자인": 6914,
      "롭다": 6915,
      "료를": 6916,
      "루시": 6917,
      "루언": 6918,
      "루프": 6919,
      "루시는": 6920,
      "륭한": 6921,
      "르기": 6922,
      "르트": 6923,
      "리밍": 6924,
      "리서": 6925,
      "리콘": 6926,
      "리라는": 6927,
      "리스크": 6928,
      "리언스": 6929,
      "리어를": 6930,
      "릭터": 6931,
      "린터": 6932,
      "립대": 6933,
      "마을": 6934,
      "마이": 6935,
      "마칠": 6936,
      "마침": 6937,
      "마커": 6938,
      "마하": 6939,
      "마리가": 6940,
      "마스크": 6941,
      "막기": 6942,
      "막을": 6943,
      "막대한": 6944,
      "만난": 6945,
      "만만": 6946,
      "만을": 6947,
      "만점": 6948,
      "말고": 6949,
      "말도": 6950,
      "말로": 6951,
      "말한": 6952,
      "말해": 6953,
      "말하는": 6954,
      "말하자": 6955,
      "망가": 6956,
      "망을": 6957,
      "맞게": 6958,
      "맞아": 6959,
      "맞춘": 6960,
      "맡겨": 6961,
      "맡았다": 6962,
      "매력을": 6963,
      "매이지": 6964,
      "먹었다": 6965,
      "멀리": 6966,
      "메가": 6967,
      "메쎄": 6968,
      "메이크": 6969,
      "멘토": 6970,
      "면을": 6971,
      "면의": 6972,
      "면에서": 6973,
      "명목": 6974,
      "명실": 6975,
      "명에게": 6976,
      "모른": 6977,
      "모션": 6978,
      "모순": 6979,
      "모은": 6980,
      "모의": 6981,
      "모호": 6982,
      "모드를": 6983,
      "모티브": 6984,
      "모건스탠리": 6985,
      "모란장을": 6986,
      "목이": 6987,
      "목적으로": 6988,
      "몬스터": 6989,
      "몰아": 6990,
      "몰린다": 6991,
      "못할": 6992,
      "못했다": 6993,
      "못하고": 6994,
      "무너": 6995,
      "무는": 6996,
      "무대": 6997,
      "무려": 6998,
      "무력": 6999,
      "무렵": 7000,
      "무릎": 7001,
      "무시": 7002,
      "무언": 7003,
      "무용": 7004,
      "무척": 7005,
      "무인상": 7006,
      "무기는": 7007,
      "무이자": 7008,
      "무차별적": 7009,
      "문명": 7010,
      "문의": 7011,
      "문학": 7012,
      "문장을": 7013,
      "문화재": 7014,
      "문상담": 7015,
      "묻는": 7016,
      "물에": 7017,
      "물타": 7018,
      "물관리": 7019,
      "뭐니": 7020,
      "뭔가": 7021,
      "미니": 7022,
      "미를": 7023,
      "미리": 7024,
      "미만": 7025,
      "미의": 7026,
      "미친": 7027,
      "미에서": 7028,
      "미시간": 7029,
      "민희": 7030,
      "믿기": 7031,
      "믿는": 7032,
      "믿음을": 7033,
      "믿음은": 7034,
      "밀어": 7035,
      "밀한": 7036,
      "밑그림": 7037,
      "바뀔": 7038,
      "바라": 7039,
      "바네버": 7040,
      "박막": 7041,
      "박용": 7042,
      "박사가": 7043,
      "박차를": 7044,
      "박람회": 7045,
      "밖으로": 7046,
      "밖에도": 7047,
      "반발": 7048,
      "반의": 7049,
      "받던": 7050,
      "받지": 7051,
      "받으며": 7052,
      "받으면": 7053,
      "발급": 7054,
      "발사": 7055,
      "발휘": 7056,
      "발적으로": 7057,
      "발판을": 7058,
      "발광다": 7059,
      "밝혀": 7060,
      "밝히": 7061,
      "밝힐": 7062,
      "방지": 7063,
      "방이다": 7064,
      "방안을": 7065,
      "배상": 7066,
      "배열": 7067,
      "백1": 7068,
      "백6": 7069,
      "백7": 7070,
      "백악": 7071,
      "백이": 7072,
      "버드": 7073,
      "번씩": 7074,
      "벌면": 7075,
      "벌이고": 7076,
      "범용": 7077,
      "법정": 7078,
      "법학": 7079,
      "베스트": 7080,
      "베니아": 7081,
      "변동": 7082,
      "변호": 7083,
      "별도": 7084,
      "별한": 7085,
      "별복지": 7086,
      "별도로": 7087,
      "병철": 7088,
      "병으로": 7089,
      "보게": 7090,
      "보관": 7091,
      "보낼": 7092,
      "보라": 7093,
      "보며": 7094,
      "보상": 7095,
      "보스": 7096,
      "보조": 7097,
      "보통": 7098,
      "보이고": 7099,
      "보였다": 7100,
      "보이는": 7101,
      "보편성": 7102,
      "보이지만": 7103,
      "보냈다": 7104,
      "보리스": 7105,
      "보이게": 7106,
      "복화": 7107,
      "복제품": 7108,
      "복구를": 7109,
      "본보": 7110,
      "본사를": 7111,
      "본인을": 7112,
      "부당": 7113,
      "부시": 7114,
      "부울": 7115,
      "부한다": 7116,
      "부르면": 7117,
      "부다가": 7118,
      "부르지": 7119,
      "북대": 7120,
      "분께": 7121,
      "분사": 7122,
      "분산": 7123,
      "분양": 7124,
      "분자": 7125,
      "분화": 7126,
      "분들에게": 7127,
      "분위기가": 7128,
      "분별복지": 7129,
      "불교": 7130,
      "불안": 7131,
      "불을": 7132,
      "불이": 7133,
      "불가능한": 7134,
      "불균형": 7135,
      "불확실": 7136,
      "붐비는": 7137,
      "브릭": 7138,
      "브컴퍼니": 7139,
      "븐일": 7140,
      "블루": 7141,
      "비례": 7142,
      "비명": 7143,
      "비싸": 7144,
      "비영": 7145,
      "비워": 7146,
      "비즈": 7147,
      "비춰": 7148,
      "비틀": 7149,
      "비티": 7150,
      "비정규직": 7151,
      "비편평세포": 7152,
      "빈도": 7153,
      "빈은": 7154,
      "빚을": 7155,
      "빛과": 7156,
      "뿌려": 7157,
      "사다": 7158,
      "사망": 7159,
      "사임": 7160,
      "사채": 7161,
      "사이에": 7162,
      "사정이": 7163,
      "사장과": 7164,
      "산불": 7165,
      "산소": 7166,
      "산타": 7167,
      "산으로": 7168,
      "산병원": 7169,
      "산스크": 7170,
      "살려": 7171,
      "살아가": 7172,
      "삶과": 7173,
      "상단": 7174,
      "상변": 7175,
      "상블": 7176,
      "상생": 7177,
      "상시": 7178,
      "상에서": 7179,
      "상으로는": 7180,
      "상부한": 7181,
      "상무는": 7182,
      "새다": 7183,
      "새벽": 7184,
      "생겼": 7185,
      "생존": 7186,
      "생중": 7187,
      "생산업체": 7188,
      "생겼다": 7189,
      "생계가": 7190,
      "서글": 7191,
      "서민": 7192,
      "서버": 7193,
      "서애": 7194,
      "서에": 7195,
      "석탄": 7196,
      "석이다": 7197,
      "선수": 7198,
      "선의": 7199,
      "선이": 7200,
      "선호": 7201,
      "선제공": 7202,
      "선보인다": 7203,
      "설득": 7204,
      "설명을": 7205,
      "성금": 7206,
      "성의": 7207,
      "성인": 7208,
      "성큼": 7209,
      "성했다": 7210,
      "성평가": 7211,
      "성경림": 7212,
      "성남시": 7213,
      "세단": 7214,
      "세력": 7215,
      "세스": 7216,
      "세의": 7217,
      "세차": 7218,
      "세하고": 7219,
      "세하게": 7220,
      "세원을": 7221,
      "세원이": 7222,
      "세율이": 7223,
      "세율을": 7224,
      "세분화": 7225,
      "세븐일": 7226,
      "셋째": 7227,
      "소가": 7228,
      "소수": 7229,
      "소시": 7230,
      "소식": 7231,
      "소위": 7232,
      "소자": 7233,
      "소지": 7234,
      "소진": 7235,
      "소형": 7236,
      "속을": 7237,
      "속해": 7238,
      "손길환": 7239,
      "솔직": 7240,
      "송금": 7241,
      "쇼호": 7242,
      "수에": 7243,
      "수여": 7244,
      "수원": 7245,
      "수익": 7246,
      "수전": 7247,
      "수직": 7248,
      "수집": 7249,
      "수퍼": 7250,
      "수평": 7251,
      "수혼": 7252,
      "순수": 7253,
      "순기능": 7254,
      "술사": 7255,
      "술인": 7256,
      "숨겨": 7257,
      "숨어": 7258,
      "쉬워": 7259,
      "스카": 7260,
      "스코": 7261,
      "스콧": 7262,
      "스티": 7263,
      "슬라": 7264,
      "습도를": 7265,
      "승리": 7266,
      "승환": 7267,
      "승인을": 7268,
      "시도": 7269,
      "시의": 7270,
      "시청": 7271,
      "시카": 7272,
      "시트": 7273,
      "시한": 7274,
      "시까지": 7275,
      "시너지를": 7276,
      "식으로": 7277,
      "신속": 7278,
      "신들의": 7279,
      "신기술을": 7280,
      "신제품": 7281,
      "신기술이": 7282,
      "신기술과": 7283,
      "신체부": 7284,
      "실과": 7285,
      "실수": 7286,
      "실이": 7287,
      "실재": 7288,
      "실증": 7289,
      "실학": 7290,
      "실화": 7291,
      "실시대": 7292,
      "실장은": 7293,
      "실렸다": 7294,
      "실수요": 7295,
      "실체가": 7296,
      "실거래가": 7297,
      "실리콘": 7298,
      "실베니아": 7299,
      "심도": 7300,
      "심을": 7301,
      "심장": 7302,
      "심재": 7303,
      "심한": 7304,
      "심사를": 7305,
      "심리적": 7306,
      "싱크": 7307,
      "싱턴": 7308,
      "싱가폴": 7309,
      "싸우": 7310,
      "쌓아": 7311,
      "쓰고": 7312,
      "쓰지": 7313,
      "아담": 7314,
      "아제": 7315,
      "아키": 7316,
      "아리아": 7317,
      "아르바이": 7318,
      "아토피": 7319,
      "아산병원": 7320,
      "악성": 7321,
      "안다": 7322,
      "안은": 7323,
      "안착": 7324,
      "안팎": 7325,
      "안으로": 7326,
      "안이다": 7327,
      "안된다": 7328,
      "안나경": 7329,
      "안병철": 7330,
      "않게": 7331,
      "않기": 7332,
      "않다는": 7333,
      "않거나": 7334,
      "않느냐": 7335,
      "알게": 7336,
      "알릴": 7337,
      "알리는": 7338,
      "암세포": 7339,
      "압축": 7340,
      "앙상블": 7341,
      "앞선": 7342,
      "앞에서": 7343,
      "앞당길": 7344,
      "애니": 7345,
      "액수를": 7346,
      "액세스": 7347,
      "야간": 7348,
      "야의": 7349,
      "약물": 7350,
      "약효": 7351,
      "약적으로": 7352,
      "약물의": 7353,
      "양대": 7354,
      "양자": 7355,
      "어마": 7356,
      "어제": 7357,
      "어젠": 7358,
      "어웨이": 7359,
      "억제": 7360,
      "얻을": 7361,
      "얼어": 7362,
      "얽매이지": 7363,
      "없던": 7364,
      "없앴": 7365,
      "없죠": 7366,
      "없어요": 7367,
      "었으니": 7368,
      "에겐": 7369,
      "에스": 7370,
      "에이전": 7371,
      "엔드": 7372,
      "엔터": 7373,
      "엠비전": 7374,
      "여객": 7375,
      "여름": 7376,
      "여파": 7377,
      "여행": 7378,
      "여성과": 7379,
      "여기는": 7380,
      "여건을": 7381,
      "여실화": 7382,
      "역설": 7383,
      "역진": 7384,
      "역사와": 7385,
      "연말": 7386,
      "연세": 7387,
      "연수": 7388,
      "연일": 7389,
      "연차": 7390,
      "연초": 7391,
      "연한": 7392,
      "연기관": 7393,
      "연수를": 7394,
      "연평균": 7395,
      "연씨가": 7396,
      "열며": 7397,
      "열선": 7398,
      "영원": 7399,
      "영남지역": 7400,
      "옆에": 7401,
      "예로": 7402,
      "예술": 7403,
      "예전": 7404,
      "오가": 7405,
      "오너": 7406,
      "오디": 7407,
      "오직": 7408,
      "오르고": 7409,
      "오랫동안": 7410,
      "올려": 7411,
      "올리고": 7412,
      "옮겼다": 7413,
      "옵니다": 7414,
      "와중에": 7415,
      "완전": 7416,
      "완전자": 7417,
      "완전한": 7418,
      "왕태": 7419,
      "외신": 7420,
      "외에도": 7421,
      "외제약": 7422,
      "요격": 7423,
      "요법": 7424,
      "요일": 7425,
      "욕망을": 7426,
      "용기": 7427,
      "용량": 7428,
      "용문상담": 7429,
      "우딜": 7430,
      "운다": 7431,
      "운동": 7432,
      "운송": 7433,
      "운전자": 7434,
      "운드리": 7435,
      "움을": 7436,
      "웃음": 7437,
      "워낙": 7438,
      "워로": 7439,
      "워치": 7440,
      "원가": 7441,
      "원씩": 7442,
      "원장": 7443,
      "원치": 7444,
      "원통": 7445,
      "원하": 7446,
      "원활": 7447,
      "원이다": 7448,
      "원내부": 7449,
      "원거리": 7450,
      "원짜리": 7451,
      "원순환": 7452,
      "월세": 7453,
      "위너": 7454,
      "위대": 7455,
      "위선": 7456,
      "위크": 7457,
      "위탁": 7458,
      "위원을": 7459,
      "위기를": 7460,
      "유류": 7461,
      "유를": 7462,
      "유엔": 7463,
      "유예": 7464,
      "유용": 7465,
      "유일": 7466,
      "유정": 7467,
      "유전자": 7468,
      "유산으로": 7469,
      "육성을": 7470,
      "육성에": 7471,
      "윤채": 7472,
      "윤태": 7473,
      "윤리를": 7474,
      "윤단비": 7475,
      "율주행": 7476,
      "으론": 7477,
      "으키": 7478,
      "으면서": 7479,
      "으라는": 7480,
      "응답": 7481,
      "응대": 7482,
      "의류": 7483,
      "의식": 7484,
      "의해": 7485,
      "의사는": 7486,
      "의도가": 7487,
      "의도를": 7488,
      "의해서": 7489,
      "의견을": 7490,
      "의구심": 7491,
      "이것": 7492,
      "이냐": 7493,
      "이니": 7494,
      "이론": 7495,
      "이정": 7496,
      "이젠": 7497,
      "이종": 7498,
      "이들이": 7499,
      "이들의": 7500,
      "이사를": 7501,
      "이수를": 7502,
      "이밖에": 7503,
      "이사와": 7504,
      "이같이": 7505,
      "이목을": 7506,
      "이주식": 7507,
      "이곳은": 7508,
      "이승환": 7509,
      "익스피": 7510,
      "인명": 7511,
      "인원": 7512,
      "인플": 7513,
      "인들에게": 7514,
      "인기도": 7515,
      "인기가": 7516,
      "인코더": 7517,
      "인건비": 7518,
      "일괄": 7519,
      "일지": 7520,
      "일한": 7521,
      "일해야": 7522,
      "일평균": 7523,
      "일했던": 7524,
      "일부를": 7525,
      "일하다가": 7526,
      "일으키": 7527,
      "읽고": 7528,
      "임금": 7529,
      "임에": 7530,
      "임원": 7531,
      "입고": 7532,
      "입사": 7533,
      "입증": 7534,
      "있겠": 7535,
      "있나": 7536,
      "있으면": 7537,
      "있었던": 7538,
      "있으니": 7539,
      "있음은": 7540,
      "있음에도": 7541,
      "자극": 7542,
      "자녀": 7543,
      "자들": 7544,
      "자정": 7545,
      "자원을": 7546,
      "자세한": 7547,
      "자랑하는": 7548,
      "자원순환": 7549,
      "자위대": 7550,
      "작아": 7551,
      "작가는": 7552,
      "잘할": 7553,
      "잠시": 7554,
      "잡았다": 7555,
      "잡아야": 7556,
      "잣말을": 7557,
      "장벽": 7558,
      "장성": 7559,
      "장인": 7560,
      "장에서": 7561,
      "재계": 7562,
      "재된": 7563,
      "재택": 7564,
      "재판": 7565,
      "재호": 7566,
      "재평가를": 7567,
      "재촉하는": 7568,
      "재능대": 7569,
      "재래식": 7570,
      "저서": 7571,
      "저자": 7572,
      "저항": 7573,
      "적대": 7574,
      "적은": 7575,
      "적절": 7576,
      "적혀": 7577,
      "전남": 7578,
      "전면": 7579,
      "전액": 7580,
      "전역": 7581,
      "전염": 7582,
      "전을": 7583,
      "전의": 7584,
      "전이": 7585,
      "전후": 7586,
      "전하고": 7587,
      "전과목": 7588,
      "전세계에서": 7589,
      "전능한": 7590,
      "전선을": 7591,
      "전해진다": 7592,
      "전강독": 7593,
      "전수했다": 7594,
      "전동화": 7595,
      "전월세": 7596,
      "절차를": 7597,
      "점심": 7598,
      "점차": 7599,
      "접수는": 7600,
      "정관": 7601,
      "정교": 7602,
      "정밀": 7603,
      "정수": 7604,
      "정예": 7605,
      "정태": 7606,
      "정원의": 7607,
      "정했다고": 7608,
      "정두호": 7609,
      "제고": 7610,
      "제정": 7611,
      "졌는데": 7612,
      "조6": 7613,
      "조기": 7614,
      "조목": 7615,
      "조원": 7616,
      "조작": 7617,
      "조기에": 7618,
      "조합의": 7619,
      "존슨": 7620,
      "종부": 7621,
      "종을": 7622,
      "좋아": 7623,
      "좋겠다": 7624,
      "주관": 7625,
      "주면": 7626,
      "주민": 7627,
      "주에": 7628,
      "주유": 7629,
      "주인공": 7630,
      "주제와": 7631,
      "주일에": 7632,
      "주년을": 7633,
      "준수": 7634,
      "준혁": 7635,
      "준다는": 7636,
      "중고": 7637,
      "중이며": 7638,
      "중고등학교": 7639,
      "중공업": 7640,
      "중외제약": 7641,
      "줘요": 7642,
      "쥐를": 7643,
      "즉각": 7644,
      "증권": 7645,
      "증명": 7646,
      "증세": 7647,
      "증액": 7648,
      "증폭": 7649,
      "증세를": 7650,
      "증상이": 7651,
      "지기": 7652,
      "지대": 7653,
      "지출": 7654,
      "지침": 7655,
      "지키": 7656,
      "지주는": 7657,
      "지지를": 7658,
      "지의료": 7659,
      "지에스": 7660,
      "직하다": 7661,
      "직격탄": 7662,
      "진료": 7663,
      "진원": 7664,
      "진을": 7665,
      "진술인": 7666,
      "질이": 7667,
      "질문을": 7668,
      "집계": 7669,
      "집행": 7670,
      "집니다": 7671,
      "짓고": 7672,
      "쪽이": 7673,
      "찍은": 7674,
      "차례": 7675,
      "차린": 7676,
      "차원을": 7677,
      "차이를": 7678,
      "차코리아": 7679,
      "차상위": 7680,
      "착수": 7681,
      "착용": 7682,
      "착한": 7683,
      "참고인": 7684,
      "창작": 7685,
      "창작은": 7686,
      "찾은": 7687,
      "찾으면": 7688,
      "채우": 7689,
      "책이": 7690,
      "처로": 7691,
      "처벌": 7692,
      "처한": 7693,
      "처장은": 7694,
      "처리를": 7695,
      "처방을": 7696,
      "철학": 7697,
      "철학자": 7698,
      "청순": 7699,
      "청사진은": 7700,
      "체칠": 7701,
      "쳐다": 7702,
      "초점": 7703,
      "초지능": 7704,
      "초점을": 7705,
      "초대장을": 7706,
      "총장을": 7707,
      "총장이": 7708,
      "총회에서": 7709,
      "최대로": 7710,
      "최우선": 7711,
      "최재호": 7712,
      "최준혁": 7713,
      "추고": 7714,
      "추구": 7715,
      "추월": 7716,
      "추후": 7717,
      "추석을": 7718,
      "축구": 7719,
      "축적": 7720,
      "출금": 7721,
      "출력": 7722,
      "출생": 7723,
      "충북대": 7724,
      "취지": 7725,
      "취향": 7726,
      "측정해": 7727,
      "층은": 7728,
      "층이": 7729,
      "치지": 7730,
      "칩은": 7731,
      "카테고": 7732,
      "캐릭터": 7733,
      "캠핑": 7734,
      "커졌다": 7735,
      "커지고": 7736,
      "커지면서": 7737,
      "컨소시": 7738,
      "켜고": 7739,
      "코딩": 7740,
      "코팅": 7741,
      "코엑스": 7742,
      "코끼리": 7743,
      "코너를": 7744,
      "쿼드": 7745,
      "크기": 7746,
      "크레": 7747,
      "크기가": 7748,
      "클로버": 7749,
      "킬러": 7750,
      "킷을": 7751,
      "타개": 7752,
      "탑재된": 7753,
      "탓에": 7754,
      "태수": 7755,
      "탱크": 7756,
      "턴트": 7757,
      "테헤": 7758,
      "테슬라": 7759,
      "텍스트": 7760,
      "토요일": 7761,
      "통운": 7762,
      "통일": 7763,
      "통풍": 7764,
      "투과": 7765,
      "투기": 7766,
      "투여": 7767,
      "튜닝": 7768,
      "트로": 7769,
      "트릭": 7770,
      "트윈": 7771,
      "트레이": 7772,
      "트엔진": 7773,
      "특위": 7774,
      "특훈": 7775,
      "특성이": 7776,
      "티비티": 7777,
      "팀과": 7778,
      "팀이": 7779,
      "팅에서든": 7780,
      "파견": 7781,
      "파급": 7782,
      "파워": 7783,
      "파운드리": 7784,
      "판이": 7785,
      "판정을": 7786,
      "패를": 7787,
      "팹리스": 7788,
      "퍼져": 7789,
      "페덱": 7790,
      "페어웨이": 7791,
      "펜실베니아": 7792,
      "편지는": 7793,
      "편지를": 7794,
      "평생": 7795,
      "포스": 7796,
      "포장": 7797,
      "포스트": 7798,
      "포석이다": 7799,
      "포유류": 7800,
      "폭설": 7801,
      "폭스": 7802,
      "폴봇": 7803,
      "표출": 7804,
      "표경호": 7805,
      "푸드": 7806,
      "풀려": 7807,
      "풀어야": 7808,
      "품고": 7809,
      "품질": 7810,
      "품고가": 7811,
      "풍이": 7812,
      "프리": 7813,
      "프린터": 7814,
      "플로": 7815,
      "플러스": 7816,
      "피로": 7817,
      "피해": 7818,
      "필터": 7819,
      "핑커": 7820,
      "하라는": 7821,
      "하자는": 7822,
      "하세요": 7823,
      "하므로": 7824,
      "하였고": 7825,
      "하버드": 7826,
      "학계": 7827,
      "학내": 7828,
      "학석사": 7829,
      "학문과": 7830,
      "한계": 7831,
      "한데": 7832,
      "한도": 7833,
      "한두": 7834,
      "한밭": 7835,
      "한참": 7836,
      "한화": 7837,
      "한글로": 7838,
      "한계를": 7839,
      "한계가": 7840,
      "한눈에": 7841,
      "한양대": 7842,
      "할까": 7843,
      "할부": 7844,
      "함에도": 7845,
      "합쳐": 7846,
      "합해": 7847,
      "항균": 7848,
      "해력": 7849,
      "해법": 7850,
      "해상": 7851,
      "해온": 7852,
      "해주": 7853,
      "해질": 7854,
      "해왔다": 7855,
      "해졌다": 7856,
      "핵탄두": 7857,
      "했나": 7858,
      "했으며": 7859,
      "했으나": 7860,
      "행위를": 7861,
      "허브": 7862,
      "허황": 7863,
      "허태수": 7864,
      "혁명": 7865,
      "현관": 7866,
      "현장의": 7867,
      "현상의": 7868,
      "혈액": 7869,
      "혐오": 7870,
      "협상을": 7871,
      "형은": 7872,
      "형으로": 7873,
      "형세가": 7874,
      "호소": 7875,
      "호에": 7876,
      "호출": 7877,
      "호흡": 7878,
      "호주는": 7879,
      "호주의": 7880,
      "호스를": 7881,
      "혼잣말을": 7882,
      "홈쇼핑": 7883,
      "홈트레이": 7884,
      "홍민희": 7885,
      "화물": 7886,
      "화와": 7887,
      "화할": 7888,
      "확립": 7889,
      "확증": 7890,
      "확충": 7891,
      "환자는": 7892,
      "환자를": 7893,
      "환골탈": 7894,
      "활력을": 7895,
      "회사를": 7896,
      "회장이": 7897,
      "회장에게": 7898,
      "획기": 7899,
      "획기적인": 7900,
      "후속": 7901,
      "후지의료": 7902,
      "훈장": 7903,
      "훌륭한": 7904,
      "휴먼": 7905,
      "흉내": 7906,
      "흑은": 7907,
      "흔한": 7908,
      "흘러": 7909,
      "흥행을": 7910,
      "희생": 7911,
      "힌다": 7912,
      "으로서": 7913,
      "으로부터": 7914,
      "에서다": 7915,
      "기술인": 7916,
      "기술분야": 7917,
      "기술상의": 7918,
      "지능데이터": 7919,
      "AI기반": 7920,
      "AI연구소": 7921,
      "AI기술로": 7922,
      "AI비서": 7923,
      "2010": 7924,
      "교육인": 7925,
      "교육하고": 7926,
      "교육인증": 7927,
      "교육조직": 7928,
      "교육시설": 7929,
      "교육개혁": 7930,
      "교육대학원": 7931,
      "교육급여": 7932,
      "개발은": 7933,
      "개발하고": 7934,
      "개발교육": 7935,
      "개발됐다": 7936,
      "개발하면": 7937,
      "개발에도": 7938,
      "개발자들은": 7939,
      "개발하기로": 7940,
      "개발기구": 7941,
      "연구에": 7942,
      "연구하는": 7943,
      "연구재단": 7944,
      "연구용역": 7945,
      "대학일자리": 7946,
      "제공한": 7947,
      "제공된다": 7948,
      "제공하게": 7949,
      "제공되는": 7950,
      "제공했어요": 7951,
      "제공하겠다는": 7952,
      "까지는": 7953,
      "까지만": 7954,
      "한국어": 7955,
      "한국의": 7956,
      "한국화재": 7957,
      "한국폴리텍": 7958,
      "한국직업": 7959,
      "한국마이크로소프트": 7960,
      "한국연구재단": 7961,
      "하기란": 7962,
      "하기까지": 7963,
      "지원과": 7964,
      "지원도": 7965,
      "지원은": 7966,
      "지원자": 7967,
      "지원센터": 7968,
      "지원받아": 7969,
      "지원받게": 7970,
      "산업계": 7971,
      "산업이": 7972,
      "산업단지": 7973,
      "학생들을": 7974,
      "학생중심의": 7975,
      "스마트홈": 7976,
      "된다면": 7977,
      "전형과": 7978,
      "서비스는": 7979,
      "서비스에": 7980,
      "대표에": 7981,
      "대표와의": 7982,
      "사업화를": 7983,
      "190": 7984,
      "194": 7985,
      "198": 7986,
      "1990": 7987,
      "19세기": 7988,
      "위해선": 7989,
      "기업인": 7990,
      "기업들은": 7991,
      "기업들과": 7992,
      "우리에게": 7993,
      "소득세와": 7994,
      "분야인": 7995,
      "분야에서는": 7996,
      "분야별로": 7997,
      "데이터기반": 7998,
      "가능성을": 7999,
      "가능성과": 8000,
      "가능성은": 8001,
      "가능해진다": 8002,
      "학과가": 8003,
      "학과에서": 8004,
      "대한통운": 8005,
      "미국도": 8006,
      "통해서": 8007,
      "사회학": 8008,
      "사회에서": 8009,
      "사회보장": 8010,
      "사회구조의": 8011,
      "활용을": 8012,
      "활용하는": 8013,
      "활용해야": 8014,
      "정보에": 8015,
      "정보산업": 8016,
      "미래차": 8017,
      "미래금융": 8018,
      "미래사회의": 8019,
      "미래지향": 8020,
      "미래전의": 8021,
      "시장과": 8022,
      "시장이에요": 8023,
      "관련한": 8024,
      "관련해": 8025,
      "관련기사": 8026,
      "서울의": 8027,
      "세계로": 8028,
      "세계에": 8029,
      "세계의": 8030,
      "세계적": 8031,
      "반도체로": 8032,
      "반도체의": 8033,
      "반도체보다": 8034,
      "반도체공학과": 8035,
      "사람과": 8036,
      "사람들": 8037,
      "사람인": 8038,
      "사람인가": 8039,
      "시간대로": 8040,
      "계획도": 8041,
      "계획은": 8042,
      "계획이": 8043,
      "계획하고": 8044,
      "기반을": 8045,
      "과학원": 8046,
      "과학적": 8047,
      "투자는": 8048,
      "투자도": 8049,
      "투자할": 8050,
      "투자하는": 8051,
      "과정도": 8052,
      "과정은": 8053,
      "과정이다": 8054,
      "프로필을": 8055,
      "106": 8056,
      "10도": 8057,
      "10분": 8058,
      "10월": 8059,
      "10층": 8060,
      "게임에": 8061,
      "게임의": 8062,
      "게임이용": 8063,
      "게임물관리": 8064,
      "인도에서는": 8065,
      "인도태평양": 8066,
      "정책과": 8067,
      "정책으로": 8068,
      "정책이다": 8069,
      "정책연합": 8070,
      "정책대안": 8071,
      "정책위의": 8072,
      "필요성을": 8073,
      "필요하지": 8074,
      "필요성이": 8075,
      "문제다": 8076,
      "문제들": 8077,
      "문제로": 8078,
      "문제지만": 8079,
      "문제라고": 8080,
      "되는지": 8081,
      "시스템도": 8082,
      "시스템이": 8083,
      "센터에서": 8084,
      "이용을": 8085,
      "이용하는": 8086,
      "이용하고": 8087,
      "이용자의": 8088,
      "전문성": 8089,
      "전문기업": 8090,
      "전문적인": 8091,
      "전문인력을": 8092,
      "혁신의": 8093,
      "혁신이": 8094,
      "혁신지원": 8095,
      "혁신스쿨": 8096,
      "들어간": 8097,
      "들어서": 8098,
      "들어설": 8099,
      "들어온": 8100,
      "들어가는": 8101,
      "삼성중공업": 8102,
      "국내고": 8103,
      "지역의": 8104,
      "대구는": 8105,
      "대구지사": 8106,
      "평가다": 8107,
      "평가결과에": 8108,
      "바이브컴퍼니": 8109,
      "이상은": 8110,
      "기본역량을": 8111,
      "다양하다": 8112,
      "분석하고": 8113,
      "분석한다": 8114,
      "분석기술을": 8115,
      "영상의": 8116,
      "영상이": 8117,
      "영상으로": 8118,
      "영상에서": 8119,
      "영상처럼": 8120,
      "올해는": 8121,
      "학습담": 8122,
      "학습의": 8123,
      "학습하는": 8124,
      "학습모델": 8125,
      "학습자로": 8126,
      "코로나19가": 8127,
      "코로나19라는": 8128,
      "아이언": 8129,
      "아이러니하게도": 8130,
      "정부도": 8131,
      "정부에서": 8132,
      "상황과": 8133,
      "상황판": 8134,
      "상황판을": 8135,
      "선발해": 8136,
      "업체에": 8137,
      "업체의": 8138,
      "업체들은": 8139,
      "업체들에게": 8140,
      "운영과": 8141,
      "운영한다": 8142,
      "운영센터": 8143,
      "융합이": 8144,
      "융합적": 8145,
      "융합학과": 8146,
      "교과서": 8147,
      "중개를": 8148,
      "중개인도": 8149,
      "중개사가": 8150,
      "중개보수": 8151,
      "협력사": 8152,
      "협력할": 8153,
      "협력으로": 8154,
      "협력키로": 8155,
      "협력개발기구": 8156,
      "000명의": 8157,
      "00090": 8158,
      "노동과": 8159,
      "노동자가": 8160,
      "노동자들이": 8161,
      "노동자들은": 8162,
      "관계자": 8163,
      "관계자들이": 8164,
      "모두가": 8165,
      "GS가": 8166,
      "GS퓨처": 8167,
      "인재로": 8168,
      "인재전형은": 8169,
      "인재전형이": 8170,
      "30분": 8171,
      "기능에": 8172,
      "제도도": 8173,
      "제도로": 8174,
      "제도에": 8175,
      "국민소득": 8176,
      "국민에게": 8177,
      "국민훈장": 8178,
      "기자간담회": 8179,
      "시대적": 8180,
      "채용에": 8181,
      "물류회사": 8182,
      "생각한": 8183,
      "생각보다": 8184,
      "생각해야": 8185,
      "전자상거래": 8186,
      "진행한다": 8187,
      "진행됐다": 8188,
      "진행되면서": 8189,
      "학교와": 8190,
      "학교에서": 8191,
      "사용자": 8192,
      "사용해": 8193,
      "사용되고": 8194,
      "사용자의": 8195,
      "스트로": 8196,
      "스트리밍": 8197,
      "현대백화점": 8198,
      "현대커머": 8199,
      "경제학과를": 8200,
      "경제대학원": 8201,
      "경제협력개발기구": 8202,
      "도시통합": 8203,
      "도시건설청": 8204,
      "사진에": 8205,
      "사진에서": 8206,
      "자리에서": 8207,
      "제품의": 8208,
      "2012년": 8209,
      "강화된": 8210,
      "강화를": 8211,
      "강화와": 8212,
      "강화해": 8213,
      "강화했다": 8214,
      "강화하면서": 8215,
      "구축한": 8216,
      "구축했다": 8217,
      "구축하여": 8218,
      "모집하는": 8219,
      "모집단위": 8220,
      "빅데이터에": 8221,
      "예측과": 8222,
      "예측한": 8223,
      "예측하고": 8224,
      "예측기술": 8225,
      "예측하기": 8226,
      "예측시스템": 8227,
      "예측제도": 8228,
      "예측력을": 8229,
      "하지도": 8230,
      "기본소득에": 8231,
      "기본소득이": 8232,
      "기본소득제": 8233,
      "발전과": 8234,
      "발전의": 8235,
      "발전이": 8236,
      "설계는": 8237,
      "설계로": 8238,
      "설계만": 8239,
      "설계와": 8240,
      "설계한": 8241,
      "디지털화": 8242,
      "디지털콘텐츠": 8243,
      "디지털전환": 8244,
      "콘텐츠다": 8245,
      "콘텐츠정책": 8246,
      "신설돼": 8247,
      "신설하는": 8248,
      "신설하고": 8249,
      "자율적": 8250,
      "공개될": 8251,
      "공개됐다": 8252,
      "공개해야": 8253,
      "공개하라": 8254,
      "국가로": 8255,
      "국가를": 8256,
      "금융기술": 8257,
      "금융서비스": 8258,
      "기준이": 8259,
      "뉴스를": 8260,
      "복지는": 8261,
      "복지의": 8262,
      "복지정책": 8263,
      "복지제도가": 8264,
      "구조는": 8265,
      "구조다": 8266,
      "구조에선": 8267,
      "그러한": 8268,
      "그러려면": 8269,
      "모델은": 8270,
      "자가통신망": 8271,
      "전략의": 8272,
      "전략적": 8273,
      "전략이다": 8274,
      "전략사업": 8275,
      "전략연구소": 8276,
      "연구원장": 8277,
      "과학기술에": 8278,
      "과학기술의": 8279,
      "과학기술이": 8280,
      "KT에": 8281,
      "수준별": 8282,
      "수준이": 8283,
      "직원들": 8284,
      "직원은": 8285,
      "직원의": 8286,
      "직원에게": 8287,
      "직원들에게": 8288,
      "플랫폼사업": 8289,
      "CT가": 8290,
      "CT를": 8291,
      "대상의": 8292,
      "대상인": 8293,
      "세대를": 8294,
      "시작은": 8295,
      "시작하는": 8296,
      "시작했다": 8297,
      "이어갈": 8298,
      "이어질": 8299,
      "이어졌다": 8300,
      "이어나가": 8301,
      "이어간다": 8302,
      "정치적": 8303,
      "현실이": 8304,
      "현실적인": 8305,
      "경우는": 8306,
      "경우도": 8307,
      "고용노동": 8308,
      "규모는": 8309,
      "규모로": 8310,
      "로봇청소": 8311,
      "설명하는": 8312,
      "설명하고": 8313,
      "성과는": 8314,
      "아니고": 8315,
      "아니냐": 8316,
      "아니면": 8317,
      "아니라는": 8318,
      "개선과": 8319,
      "개선된": 8320,
      "개선에": 8321,
      "개선이": 8322,
      "개선할": 8323,
      "하면서다": 8324,
      "물류센터지": 8325,
      "스타트업이다": 8326,
      "스타트업들이": 8327,
      "공동창업": 8328,
      "공동취재": 8329,
      "국제적": 8330,
      "국제화": 8331,
      "국제정책": 8332,
      "국제질서": 8333,
      "만큼은": 8334,
      "인식하는": 8335,
      "인식부터": 8336,
      "인식조사": 8337,
      "추진선": 8338,
      "추진할": 8339,
      "추진하고": 8340,
      "추진체계": 8341,
      "소프트뱅크": 8342,
      "일자리와": 8343,
      "정도는": 8344,
      "정도에요": 8345,
      "주행에": 8346,
      "주행할": 8347,
      "화질구지": 8348,
      "확대할": 8349,
      "확대했다": 8350,
      "확대하기로": 8351,
      "구성해": 8352,
      "구성하여": 8353,
      "위원장": 8354,
      "위원회의": 8355,
      "참여한": 8356,
      "참여할": 8357,
      "참여했다": 8358,
      "참여한다": 8359,
      "참여하며": 8360,
      "참여자의": 8361,
      "효율성": 8362,
      "효율적이다": 8363,
      "IT융합": 8364,
      "비용에": 8365,
      "비용은": 8366,
      "적용될": 8367,
      "적용한": 8368,
      "적용해": 8369,
      "적용했다": 8370,
      "적용하고": 8371,
      "정확하게": 8372,
      "정확도로": 8373,
      "가능하다는": 8374,
      "대통령과": 8375,
      "anc": 8376,
      "anti": 8377,
      "기관을": 8378,
      "기관이": 8379,
      "내년도": 8380,
      "대비하겠다는": 8381,
      "도입한": 8382,
      "도입해": 8383,
      "도입하고": 8384,
      "만들어요": 8385,
      "만들어졌다": 8386,
      "발표된": 8387,
      "발표를": 8388,
      "양성할": 8389,
      "양성하기": 8390,
      "위험에": 8391,
      "위험성을": 8392,
      "있어도": 8393,
      "있어서는": 8394,
      "있어서다": 8395,
      "주택이": 8396,
      "중심을": 8397,
      "중심이": 8398,
      "포함된": 8399,
      "포함하여": 8400,
      "핵심은": 8401,
      "핵심이다": 8402,
      "핵심기술": 8403,
      "후보에게": 8404,
      "부동산은": 8405,
      "부동산중개인은": 8406,
      "112": 8407,
      "11억": 8408,
      "14억": 8409,
      "100여": 8410,
      "그룹이": 8411,
      "생활에": 8412,
      "인터내셔": 8413,
      "전체적으로": 8414,
      "하나가": 8415,
      "하나만": 8416,
      "알고리즘에": 8417,
      "알고리즘은": 8418,
      "알고리즘이": 8419,
      "메타버스는": 8420,
      "메타버스를": 8421,
      "캠퍼스를": 8422,
      "134": 8423,
      "13개": 8424,
      "나라에": 8425,
      "나라에서": 8426,
      "넘어설": 8427,
      "변화가": 8428,
      "변화의": 8429,
      "선택을": 8430,
      "선택이다": 8431,
      "선택제는": 8432,
      "어떤가": 8433,
      "역량과": 8434,
      "바이오닉스": 8435,
      "바이오마커": 8436,
      "프로그램은": 8437,
      "프로그램으로": 8438,
      "강조하는": 8439,
      "기존의": 8440,
      "네이버가": 8441,
      "네이버와": 8442,
      "네이버의": 8443,
      "요구하고": 8444,
      "인천국제공": 8445,
      "인천재능대": 8446,
      "지금도": 8447,
      "지금은": 8448,
      "지금의": 8449,
      "첫인상에": 8450,
      "체계도": 8451,
      "전문가다": 8452,
      "전문가를": 8453,
      "자율주행기술": 8454,
      "자율주행자동차": 8455,
      "15년": 8456,
      "18세": 8457,
      "결정과": 8458,
      "결정된": 8459,
      "공정성": 8460,
      "공정한": 8461,
      "공정하고": 8462,
      "공정소득": 8463,
      "높은데": 8464,
      "마련에": 8465,
      "마련을": 8466,
      "마련됐다": 8467,
      "마련하여": 8468,
      "마련한다는": 8469,
      "발생한": 8470,
      "발생하고": 8471,
      "발생하면": 8472,
      "보고서를": 8473,
      "보고서에": 8474,
      "생산을": 8475,
      "생산량을": 8476,
      "의미가": 8477,
      "의미에서는": 8478,
      "화재조사": 8479,
      "가능한지": 8480,
      "프로젝트는": 8481,
      "프로젝트로": 8482,
      "가상세계": 8483,
      "가상모델": 8484,
      "교통정보": 8485,
      "디어라이프": 8486,
      "만들기": 8487,
      "방식이": 8488,
      "외국어가": 8489,
      "인증을": 8490,
      "자체를": 8491,
      "치료제": 8492,
      "치료하는": 8493,
      "회의를": 8494,
      "회의에서": 8495,
      "200만": 8496,
      "200명": 8497,
      "2001년": 8498,
      "교육과정과": 8499,
      "40년": 8500,
      "40명": 8501,
      "40세": 8502,
      "40명을": 8503,
      "경영학과는": 8504,
      "경영진을": 8505,
      "롯데마트": 8506,
      "롯데지주": 8507,
      "롯데지주는": 8508,
      "롯데홈쇼핑": 8509,
      "부분도": 8510,
      "수시1차": 8511,
      "어려울": 8512,
      "있을지": 8513,
      "조건이": 8514,
      "대구시가": 8515,
      "대구시는": 8516,
      "5년간": 8517,
      "공간이다": 8518,
      "공학교육인증": 8519,
      "기회가": 8520,
      "단계의": 8521,
      "면접을": 8522,
      "면접에서든": 8523,
      "선박은": 8524,
      "선박을": 8525,
      "선박의": 8526,
      "선박이": 8527,
      "성적을": 8528,
      "없이도": 8529,
      "연계해": 8530,
      "연계하는": 8531,
      "이뤄진": 8532,
      "이뤄질": 8533,
      "이뤄지는": 8534,
      "이뤄지지": 8535,
      "제시할": 8536,
      "제시하고": 8537,
      "제시됐다": 8538,
      "창업을": 8539,
      "창업한": 8540,
      "창업자들은": 8541,
      "청년들에게": 8542,
      "해결할": 8543,
      "해결하기": 8544,
      "해결하지": 8545,
      "인천공항이": 8546,
      "인천공항공사는": 8547,
      "공유복수전공": 8548,
      "그래프": 8549,
      "그래픽": 8550,
      "기대를": 8551,
      "기대와": 8552,
      "기초기반": 8553,
      "기초생활": 8554,
      "단어보다": 8555,
      "방법을": 8556,
      "방법이": 8557,
      "방법이다": 8558,
      "비롯된": 8559,
      "중국도": 8560,
      "중국은": 8561,
      "진단했다": 8562,
      "찾아가": 8563,
      "찾아와": 8564,
      "찾아옵니다": 8565,
      "평균은": 8566,
      "1년간": 8567,
      "1년부터": 8568,
      "능력은": 8569,
      "능력연구원장": 8570,
      "대출액": 8571,
      "대출이": 8572,
      "성장의": 8573,
      "수수료를": 8574,
      "업계의": 8575,
      "업계에선": 8576,
      "윤리의": 8577,
      "윤리적": 8578,
      "이유만으로": 8579,
      "전망도": 8580,
      "전망된다": 8581,
      "참석했다": 8582,
      "참석자들이": 8583,
      "통합전형": 8584,
      "트위터가": 8585,
      "트위터는": 8586,
      "트위터를": 8587,
      "트위터에서": 8588,
      "확보를": 8589,
      "확보와": 8590,
      "확보했다": 8591,
      "확보하고": 8592,
      "확보하기": 8593,
      "교육부의": 8594,
      "산업혁명을": 8595,
      "스마트폰에": 8596,
      "스마트폰의": 8597,
      "스마트폰으로": 8598,
      "스마트폰에서": 8599,
      "스마트폰과의": 8600,
      "정보통신망": 8601,
      "정보통신기술을": 8602,
      "삼성전자를": 8603,
      "소프트웨어가": 8604,
      "소프트웨어정책연구소": 8605,
      "백화점과": 8606,
      "25억": 8607,
      "25명의": 8608,
      "bot": 8609,
      "로보택시": 8610,
      "물론이고": 8611,
      "미사일에": 8612,
      "미사일을": 8613,
      "받았다고": 8614,
      "방위성이": 8615,
      "방위비를": 8616,
      "방위비는": 8617,
      "방위장관": 8618,
      "방위비가": 8619,
      "보유를": 8620,
      "보유하고": 8621,
      "성공과": 8622,
      "성공할": 8623,
      "성공적으로": 8624,
      "성공적이었다": 8625,
      "애플이": 8626,
      "애플워치": 8627,
      "어렵겠지만": 8628,
      "인력이": 8629,
      "인력들이": 8630,
      "인력개발교육": 8631,
      "작업은": 8632,
      "작업이": 8633,
      "전지전능한": 8634,
      "제작과": 8635,
      "제작해": 8636,
      "주장한": 8637,
      "주장하는": 8638,
      "준비를": 8639,
      "준비하는": 8640,
      "준비했다": 8641,
      "지식의": 8642,
      "집중하는": 8643,
      "집중하고": 8644,
      "집중적으로": 8645,
      "집중하겠다": 8646,
      "출시는": 8647,
      "출시될": 8648,
      "출시할": 8649,
      "출시했다": 8650,
      "하겠다고": 8651,
      "한국일보가": 8652,
      "아이폰은": 8653,
      "아이폰을": 8654,
      "아이폰12": 8655,
      "70여": 8656,
      "kopo": 8657,
      "공학과를": 8658,
      "국회에": 8659,
      "대선을": 8660,
      "대선주": 8661,
      "대선읽기": 8662,
      "대화형": 8663,
      "대화하고": 8664,
      "병원행정": 8665,
      "소개했다": 8666,
      "소개한다": 8667,
      "소개팅에서든": 8668,
      "소비를": 8669,
      "소비까지": 8670,
      "소비자는": 8671,
      "소비자의": 8672,
      "소비자들은": 8673,
      "소비자들의": 8674,
      "소비자와": 8675,
      "신규채용": 8676,
      "아닌가": 8677,
      "안전을": 8678,
      "안전관리": 8679,
      "영어를": 8680,
      "영어와": 8681,
      "유기적으로": 8682,
      "유지할": 8683,
      "유지하는": 8684,
      "유지하고": 8685,
      "유지하면서": 8686,
      "이해할": 8687,
      "이해하고": 8688,
      "자료의": 8689,
      "전환을": 8690,
      "조성하는": 8691,
      "조성하기": 8692,
      "조성사업을": 8693,
      "회사로": 8694,
      "서울대와": 8695,
      "학생부종합전형은": 8696,
      "위원회가": 8697,
      "위원회를": 8698,
      "위원회에서": 8699,
      "맞춤형으로": 8700,
      "구현할": 8701,
      "구현하는": 8702,
      "나오기": 8703,
      "나오면서": 8704,
      "뛰어넘어": 8705,
      "뛰어나다": 8706,
      "볼보차코리아": 8707,
      "비전과": 8708,
      "선정된": 8709,
      "선정한": 8710,
      "안정성을": 8711,
      "음성캠퍼스": 8712,
      "이지스": 8713,
      "적극적으로": 8714,
      "졸업하고": 8715,
      "취업을": 8716,
      "취업이": 8717,
      "특성상": 8718,
      "특성에": 8719,
      "협약에": 8720,
      "인터넷으로만": 8721,
      "16300": 8722,
      "80조": 8723,
      "가까워": 8724,
      "결국은": 8725,
      "경험과": 8726,
      "경험이": 8727,
      "고려해": 8728,
      "고려하면": 8729,
      "배우게": 8730,
      "배우는": 8731,
      "밸런스를": 8732,
      "밸런스의": 8733,
      "설립한": 8734,
      "설립했다": 8735,
      "역할과": 8736,
      "이동하는": 8737,
      "이전보다": 8738,
      "지도하는": 8739,
      "차량별": 8740,
      "차량용": 8741,
      "편성하고": 8742,
      "포털의": 8743,
      "포털사이트": 8744,
      "항공사": 8745,
      "스마트제조융합": 8746,
      "필요하다고": 8747,
      "2018년에": 8748,
      "2018년부터": 8749,
      "컴퓨터비전을": 8750,
      "개념을": 8751,
      "개념이": 8752,
      "개념이다": 8753,
      "개인적으로": 8754,
      "개인정보": 8755,
      "근무하는": 8756,
      "기록했다": 8757,
      "다가온": 8758,
      "디자인해": 8759,
      "무엇이": 8760,
      "무엇으로": 8761,
      "무엇일까": 8762,
      "보여줘야": 8763,
      "스크램제": 8764,
      "시설에": 8765,
      "시설을": 8766,
      "시연을": 8767,
      "시연했다": 8768,
      "언급한": 8769,
      "여러분께": 8770,
      "영역에": 8771,
      "영역은": 8772,
      "영역이": 8773,
      "이야기가": 8774,
      "있었다고": 8775,
      "자신했다": 8776,
      "존재라고": 8777,
      "주도하는": 8778,
      "주도했다": 8779,
      "파악하는": 8780,
      "4년간": 8781,
      "4년제": 8782,
      "SW기술을": 8783,
      "거주할": 8784,
      "거주자의": 8785,
      "고민해야": 8786,
      "과목과": 8787,
      "과목은": 8788,
      "국토부": 8789,
      "선도할": 8790,
      "선도적으로": 8791,
      "설정할": 8792,
      "설정하고": 8793,
      "셧다운제도": 8794,
      "셧다운제는": 8795,
      "솔루션은": 8796,
      "솔루션의": 8797,
      "수상작": 8798,
      "수상한": 8799,
      "스윙이": 8800,
      "신입사": 8801,
      "안보를": 8802,
      "연결음": 8803,
      "연결에서": 8804,
      "연결하고": 8805,
      "인지와": 8806,
      "일정에": 8807,
      "최저임금": 8808,
      "형태가": 8809,
      "형태의": 8810,
      "1만2": 8811,
      "1만5": 8812,
      "3개월": 8813,
      "7일부터": 8814,
      "SK하이": 8815,
      "검사도": 8816,
      "다르다": 8817,
      "대기업이": 8818,
      "부산정보산업": 8819,
      "사고를": 8820,
      "사고와": 8821,
      "수행한": 8822,
      "수행하는": 8823,
      "시키고": 8824,
      "시제품이": 8825,
      "시제품제작소": 8826,
      "에어백": 8827,
      "에어스": 8828,
      "예상했다": 8829,
      "장비가": 8830,
      "장비의": 8831,
      "주목도가": 8832,
      "주목받는": 8833,
      "주차장": 8834,
      "주차시스템": 8835,
      "주차공간을": 8836,
      "책임이": 8837,
      "토론을": 8838,
      "토론하고": 8839,
      "해외에서": 8840,
      "2021에서": 8841,
      "2021학년도": 8842,
      "이스포츠대회": 8843,
      "14일까지다": 8844,
      "수시모집으로": 8845,
      "AACS": 8846,
      "infor": 8847,
      "경선에": 8848,
      "나가면": 8849,
      "내용은": 8850,
      "녹내장은": 8851,
      "도약을": 8852,
      "무기체계를": 8853,
      "미디어데": 8854,
      "미디어교육": 8855,
      "받아야": 8856,
      "받아들일": 8857,
      "보급을": 8858,
      "보급한다": 8859,
      "보호자와": 8860,
      "스피커": 8861,
      "신호전달": 8862,
      "아직도": 8863,
      "아직까지": 8864,
      "언어를": 8865,
      "언어의": 8866,
      "업무협약": 8867,
      "업무협약을": 8868,
      "입학처장": 8869,
      "지점에": 8870,
      "창원대는": 8871,
      "창원대학교": 8872,
      "총장과": 8873,
      "총장에": 8874,
      "투입할": 8875,
      "투입한다": 8876,
      "페트병": 8877,
      "폐지되면서": 8878,
      "2022학년도부터": 8879,
      "태양전지가": 8880,
      "최저학력기준은": 8881,
      "최저학력기준을": 8882,
      "최저학력기준이": 8883,
      "보건의료지식과": 8884,
      "90억": 8885,
      "개월간": 8886,
      "개편된": 8887,
      "개편해": 8888,
      "검증했다": 8889,
      "고객을": 8890,
      "기간이다": 8891,
      "덕분이다": 8892,
      "도전장을": 8893,
      "무선인터넷": 8894,
      "발굴한": 8895,
      "발굴하고": 8896,
      "발언은": 8897,
      "발언을": 8898,
      "발언하고": 8899,
      "본격화": 8900,
      "본격적으로": 8901,
      "소방대": 8902,
      "수성알파": 8903,
      "신한울": 8904,
      "신한캐피탈": 8905,
      "외교부를": 8906,
      "입장에서": 8907,
      "입장에서는": 8908,
      "입장에선": 8909,
      "전통적으로": 8910,
      "전통적인": 8911,
      "정의선": 8912,
      "정의하는": 8913,
      "조세정의에": 8914,
      "조세저항": 8915,
      "질환을": 8916,
      "창의력": 8917,
      "창의혁신": 8918,
      "촬영하고": 8919,
      "한편으로는": 8920,
      "확률을": 8921,
      "확장하는": 8922,
      "활동우수": 8923,
      "희망의": 8924,
      "현대차그룹의": 8925,
      "로보틱스의": 8926,
      "내비게이션의": 8927,
      "4개교": 8928,
      "XC60의": 8929,
      "ergy": 8930,
      "가정과": 8931,
      "개최해": 8932,
      "겨냥해": 8933,
      "고등학생": 8934,
      "과제와": 8935,
      "노력도": 8936,
      "노력하겠다": 8937,
      "논란은": 8938,
      "논란으로": 8939,
      "늘리지": 8940,
      "늘리겠다고": 8941,
      "다음과": 8942,
      "떨어지는": 8943,
      "떨어지고": 8944,
      "마음으로": 8945,
      "바꾸기": 8946,
      "비중도": 8947,
      "비행해": 8948,
      "사실상": 8949,
      "설치를": 8950,
      "세금으로": 8951,
      "수업이": 8952,
      "시행한다": 8953,
      "아주고": 8954,
      "않는다는": 8955,
      "연봉은": 8956,
      "연봉을": 8957,
      "올라온": 8958,
      "올라가면": 8959,
      "완료할": 8960,
      "완료했다": 8961,
      "요소가": 8962,
      "인데도": 8963,
      "자연의": 8964,
      "전달하는": 8965,
      "중앙은행": 8966,
      "출간한": 8967,
      "출간해": 8968,
      "충분한": 8969,
      "충분하다": 8970,
      "취득한": 8971,
      "탄소배출": 8972,
      "탄소중립": 8973,
      "판매하는": 8974,
      "팬데믹과": 8975,
      "현장에": 8976,
      "협업을": 8977,
      "협업해": 8978,
      "협업하며": 8979,
      "대학원대학교": 8980,
      "모집인원의": 8981,
      "공공임대주택에": 8982,
      "공공임대주택을": 8983,
      "모니터링을": 8984,
      "마케팅과": 8985,
      "마케팅을": 8986,
      "500만": 8987,
      "6월에": 8988,
      "결합한": 8989,
      "결합해": 8990,
      "골프스윙": 8991,
      "광고를": 8992,
      "구간부터": 8993,
      "긍정적": 8994,
      "긍정적이었다": 8995,
      "기여할": 8996,
      "기여하고": 8997,
      "년대에는": 8998,
      "대체로": 8999,
      "둘러보고": 9000,
      "드러난": 9001,
      "등장한": 9002,
      "등장으로": 9003,
      "등장했다": 9004,
      "등장하고": 9005,
      "바람이": 9006,
      "바람직하다": 9007,
      "반박했다": 9008,
      "반박한다": 9009,
      "받았죠": 9010,
      "받았다는": 9011,
      "사라지게": 9012,
      "사례도": 9013,
      "사례들을": 9014,
      "선보이": 9015,
      "소재로": 9016,
      "시각적으로": 9017,
      "시각에서다": 9018,
      "신청한": 9019,
      "아마추어": 9020,
      "아파트를": 9021,
      "얘기다": 9022,
      "우려도": 9023,
      "유럽연합": 9024,
      "유명한": 9025,
      "의원내각": 9026,
      "이사장": 9027,
      "이수하게": 9028,
      "이트를": 9029,
      "인류를": 9030,
      "인류의": 9031,
      "인문학": 9032,
      "인하대": 9033,
      "재료로": 9034,
      "전년도": 9035,
      "전화민원": 9036,
      "접목한": 9037,
      "조명스위치": 9038,
      "진로진학": 9039,
      "최소한의": 9040,
      "특징을": 9041,
      "특징이": 9042,
      "필수다": 9043,
      "필수적인": 9044,
      "하려고": 9045,
      "호주와": 9046,
      "인터뷰를": 9047,
      "인터뷰에서": 9048,
      "이야기다": 9049,
      "이야기하는": 9050,
      "이야기하고": 9051,
      "볼보자동차코리아가": 9052,
      "12월": 9053,
      "L1에": 9054,
      "ice": 9055,
      "ick": 9056,
      "가르침": 9057,
      "계속되고": 9058,
      "구분이": 9059,
      "끌어올리": 9060,
      "논의가": 9061,
      "모여서": 9062,
      "민원응대": 9063,
      "반려동물": 9064,
      "방침을": 9065,
      "백신을": 9066,
      "베이조": 9067,
      "보기에도": 9068,
      "비교하면": 9069,
      "사무실을": 9070,
      "사무실로": 9071,
      "상용화를": 9072,
      "생명과학": 9073,
      "않았던": 9074,
      "않았지만": 9075,
      "않았다는": 9076,
      "알아서": 9077,
      "육성할": 9078,
      "이슈들을": 9079,
      "재정지원": 9080,
      "전쟁을": 9081,
      "정리된다는": 9082,
      "체결했다": 9083,
      "체결했다고": 9084,
      "최선을": 9085,
      "최종보고": 9086,
      "최종등록": 9087,
      "탐색하고": 9088,
      "통화에서": 9089,
      "통화연결음": 9090,
      "특별한": 9091,
      "표시하는": 9092,
      "표시의무": 9093,
      "확진자": 9094,
      "현대카드와": 9095,
      "가상인물을": 9096,
      "가상인물들은": 9097,
      "어려움이": 9098,
      "건설청의": 9099,
      "enter": 9100,
      "밸런스히어로가": 9101,
      "보건의료정보학과를": 9102,
      "수성구에": 9103,
      "엘리베이터를": 9104,
      "ign": 9105,
      "rnal": 9106,
      "강남구": 9107,
      "강남점": 9108,
      "개정안이": 9109,
      "계약학과": 9110,
      "공격할": 9111,
      "광주시는": 9112,
      "국방기술": 9113,
      "규칙에": 9114,
      "급증한": 9115,
      "급증하고": 9116,
      "나와야": 9117,
      "도구가": 9118,
      "동탄점": 9119,
      "동탄점에서": 9120,
      "동탄점은": 9121,
      "많아요": 9122,
      "목적지": 9123,
      "목적법인": 9124,
      "변경해": 9125,
      "보안용": 9126,
      "부여하고": 9127,
      "분리해": 9128,
      "분리배출": 9129,
      "불과했다": 9130,
      "블랙박스의": 9131,
      "사항을": 9132,
      "서초구": 9133,
      "소련의": 9134,
      "소통하며": 9135,
      "스럽고": 9136,
      "시리즈는": 9137,
      "실시한": 9138,
      "실시한다": 9139,
      "실현해": 9140,
      "실현하기": 9141,
      "심리학자": 9142,
      "심리대학원대학교": 9143,
      "어디에서": 9144,
      "언제나": 9145,
      "여론조사": 9146,
      "여론조사를": 9147,
      "연락처로": 9148,
      "영화감독": 9149,
      "응용화": 9150,
      "이원욱": 9151,
      "인정된": 9152,
      "일상생활": 9153,
      "재미를": 9154,
      "재산세가": 9155,
      "주력하고": 9156,
      "중국어로": 9157,
      "중국어를": 9158,
      "지표를": 9159,
      "지표에": 9160,
      "질병의": 9161,
      "질병이": 9162,
      "친구가": 9163,
      "탄두의": 9164,
      "특수목적법인": 9165,
      "파우저의": 9166,
      "흐름상": 9167,
      "흐름을": 9168,
      "스마트기기를": 9169,
      "현대캐피탈은": 9170,
      "경제학적으로": 9171,
      "국토보유세가": 9172,
      "한국뇌연구원장이": 9173,
      "누군가가": 9174,
      "네트워크를": 9175,
      "두손컴퍼니는": 9176,
      "1단계는": 9177,
      "2만1": 9178,
      "CJ대한통운": 9179,
      "ournal": 9180,
      "robot": 9181,
      "stem": 9182,
      "가격이": 9183,
      "거듭나게": 9184,
      "검토할": 9185,
      "경고했다": 9186,
      "고급스럽고": 9187,
      "고양센터": 9188,
      "공모전": 9189,
      "구상이다": 9190,
      "궁금해": 9191,
      "극복하기": 9192,
      "당신은": 9193,
      "당신에게": 9194,
      "대안으로": 9195,
      "도래할": 9196,
      "들로부터": 9197,
      "로켓배송": 9198,
      "메시지": 9199,
      "메시지를": 9200,
      "메시지가": 9201,
      "명예회장에게": 9202,
      "모리슨": 9203,
      "불편함": 9204,
      "사과를": 9205,
      "사과하는": 9206,
      "사태를": 9207,
      "사이버가수": 9208,
      "성분비와": 9209,
      "시민들이": 9210,
      "신경세포": 9211,
      "실적을": 9212,
      "우위가": 9213,
      "운전면허": 9214,
      "의혹은": 9215,
      "의혹을": 9216,
      "이름은": 9217,
      "이름이": 9218,
      "인수합병": 9219,
      "자유롭게": 9220,
      "장면을": 9221,
      "장면이다": 9222,
      "재생에너지": 9223,
      "전시한다": 9224,
      "전은경": 9225,
      "조언을": 9226,
      "조용병": 9227,
      "지나친": 9228,
      "지시다": 9229,
      "직업훈련": 9230,
      "집단감염": 9231,
      "출범한": 9232,
      "출범했다": 9233,
      "측면이": 9234,
      "토트에": 9235,
      "토트풀": 9236,
      "해석이": 9237,
      "해소하기": 9238,
      "행복을": 9239,
      "행복한": 9240,
      "획득에": 9241,
      "획득할": 9242,
      "훈련시나리오를": 9243,
      "아이오냅": 9244,
      "아이템을": 9245,
      "아이템의": 9246,
      "GS건설은": 9247,
      "기자회견을": 9248,
      "CTO와": 9249,
      "정치권에선": 9250,
      "4차산업혁명으로": 9251,
      "장기화로": 9252,
      "장기화에": 9253,
      "항공산업이": 9254,
      "기계공학에": 9255,
      "수능최저학력기준은": 9256,
      "수능최저학력기준을": 9257,
      "수능최저학력기준이": 9258,
      "중소기업과": 9259,
      "ETRI는": 9260,
      "협의체를": 9261,
      "용인대도": 9262,
      "영덕군의": 9263,
      "워드클라우드를": 9264,
      "고른기회전형은": 9265,
      "노이즈를": 9266,
      "SK텔레콤의": 9267,
      "메이슨인텔리전스": 9268,
      "277": 9269,
      "2단계는": 9270,
      "구동하는": 9271,
      "국정과제인": 9272,
      "규명하고": 9273,
      "그렇다면": 9274,
      "근로자": 9275,
      "금지하는": 9276,
      "김태연씨가": 9277,
      "담론은": 9278,
      "담론들은": 9279,
      "대대적인": 9280,
      "동일하게": 9281,
      "리더십": 9282,
      "만족도가": 9283,
      "메카트로": 9284,
      "모양새다": 9285,
      "미치는": 9286,
      "보편적": 9287,
      "부합하는": 9288,
      "분명히": 9289,
      "분명하다": 9290,
      "불리한": 9291,
      "붓다의": 9292,
      "사학의": 9293,
      "상승으로": 9294,
      "생태계를": 9295,
      "시켜주는": 9296,
      "실기전형": 9297,
      "실행계획": 9298,
      "심각성을": 9299,
      "싶어하는": 9300,
      "아침을": 9301,
      "열어가는": 9302,
      "유연한": 9303,
      "의문도": 9304,
      "이로써": 9305,
      "이면에서": 9306,
      "인턴십": 9307,
      "장치를": 9308,
      "저장된": 9309,
      "저장창고": 9310,
      "전작보다": 9311,
      "접종을": 9312,
      "정말로": 9313,
      "종양에서도": 9314,
      "좌담회는": 9315,
      "진출을": 9316,
      "차단하는": 9317,
      "충실도": 9318,
      "캘러웨이골프": 9319,
      "키우기": 9320,
      "키우는": 9321,
      "튜링의": 9322,
      "파크에서": 9323,
      "폐쇄적인": 9324,
      "표적을": 9325,
      "풀어드립니다": 9326,
      "한마인재전형은": 9327,
      "허용하는": 9328,
      "확정지": 9329,
      "인도인들은": 9330,
      "인도인들에게": 9331,
      "GS칼텍스는": 9332,
      "발전소를": 9333,
      "발전소의": 9334,
      "공공정책전략연구소": 9335,
      "13일까지": 9336,
      "제약공학과와": 9337,
      "컴퓨터공학전공": 9338,
      "신세계백화점은": 9339,
      "스피드와": 9340,
      "무선망을": 9341,
      "신한금융과": 9342,
      "베이글소프트의": 9343,
      "원티드랩은": 9344,
      "서울시립대는": 9345,
      "서울시립대학교는": 9346,
      "아카데미아는": 9347,
      "TSMC에": 9348,
      "TSMC에서": 9349,
      "문화체육관광부": 9350,
      "문화체육관광부의": 9351,
      "6시까지": 9352,
      "72명을": 9353,
      "8구간까지": 9354,
      "Energy": 9355,
      "GTX": 9356,
      "간편하게": 9357,
      "괜찮다고": 9358,
      "구직자": 9359,
      "김영수": 9360,
      "김영익": 9361,
      "내외에서": 9362,
      "냉전기에": 9363,
      "능동적으로": 9364,
      "대변혁": 9365,
      "메모리반도체": 9366,
      "발현이": 9367,
      "벤츠는": 9368,
      "복귀에": 9369,
      "부랴부랴": 9370,
      "불거지는": 9371,
      "사상가": 9372,
      "선언한": 9373,
      "성격이": 9374,
      "세상보기": 9375,
      "세워져": 9376,
      "수립을": 9377,
      "수십억": 9378,
      "스러운": 9379,
      "스며든": 9380,
      "시킨다": 9381,
      "실태조사를": 9382,
      "아웃링크": 9383,
      "아프가니스": 9384,
      "압도적인": 9385,
      "엉뚱한": 9386,
      "여가부": 9387,
      "연료전지": 9388,
      "연재됩니다": 9389,
      "오늘날": 9390,
      "오토쇼": 9391,
      "오토모티브": 9392,
      "요청하면": 9393,
      "원서접수는": 9394,
      "의학전문기자": 9395,
      "이오드": 9396,
      "이오나이": 9397,
      "이온은": 9398,
      "이탈리아": 9399,
      "이탈리어를": 9400,
      "이들에게는": 9401,
      "장점이": 9402,
      "재원도": 9403,
      "절반이": 9404,
      "제외한": 9405,
      "제휴를": 9406,
      "종류의": 9407,
      "집값이": 9408,
      "짚어보는": 9409,
      "차고지를": 9410,
      "창조했다는": 9411,
      "청와대": 9412,
      "청와대의": 9413,
      "초빙교수": 9414,
      "초빙교수가": 9415,
      "취약계층": 9416,
      "커넥티비티": 9417,
      "컨설팅": 9418,
      "컨설턴트": 9419,
      "택배가": 9420,
      "특이도는": 9421,
      "파이브": 9422,
      "피부염": 9423,
      "하락했다": 9424,
      "한전과": 9425,
      "해보겠다": 9426,
      "행보가": 9427,
      "행보에": 9428,
      "호남대는": 9429,
      "호기심을": 9430,
      "화려함": 9431,
      "화원고는": 9432,
      "사람들에게까지": 9433,
      "중개수수료에": 9434,
      "학교생활우수자전형과": 9435,
      "학교장추천전형": 9436,
      "복지국가론자인": 9437,
      "태양전지는": 9438,
      "태양전지를": 9439,
      "롯데케미칼은": 9440,
      "단계에서만": 9441,
      "트위터코리아에서": 9442,
      "ency": 9443,
      "졸업생들이": 9444,
      "보장해주는": 9445,
      "무엇보다도": 9446,
      "테스트베드": 9447,
      "LG전자와": 9448,
      "방사선에": 9449,
      "인문계열은": 9450,
      "줄어든다": 9451,
      "수험생이라면": 9452,
      "회수로봇을": 9453,
      "울주군과": 9454,
      "자연계열은": 9455,
      "화장실에": 9456,
      "활공비행체는": 9457,
      "폴리오컴퍼니는": 9458,
      "클럽하우스에": 9459,
      "마지막으로": 9460,
      "켑코솔라": 9461,
      "켑코솔라는": 9462,
      "900개": 9463,
      "JW중외제약": 9464,
      "Quad": 9465,
      "agement": 9466,
      "hyun": 9467,
      "oder": 9468,
      "가득한": 9469,
      "갖췄다": 9470,
      "거세다": 9471,
      "검정고": 9472,
      "경량화를": 9473,
      "권대익": 9474,
      "권한을": 9475,
      "그나마": 9476,
      "김희정": 9477,
      "끊임없이": 9478,
      "나머지": 9479,
      "낮아요": 9480,
      "내놨다": 9481,
      "내장된": 9482,
      "노령화가": 9483,
      "당국자는": 9484,
      "대리인이": 9485,
      "대건고와": 9486,
      "두려움": 9487,
      "땜질처방": 9488,
      "마찬가지로": 9489,
      "맥락이다": 9490,
      "모듈을": 9491,
      "무관하게": 9492,
      "물품을": 9493,
      "민감도는": 9494,
      "바로보기": 9495,
      "벌써부터": 9496,
      "복덕방": 9497,
      "부상한": 9498,
      "브레나를": 9499,
      "브록만이": 9500,
      "비슷한": 9501,
      "비율은": 9502,
      "빈곤율이": 9503,
      "사명보다": 9504,
      "산물이다": 9505,
      "선입견": 9506,
      "선제적으로": 9507,
      "세우지": 9508,
      "세미나에서": 9509,
      "소외된": 9510,
      "소요되는": 9511,
      "수백만": 9512,
      "순항미사일은": 9513,
      "스페셜": 9514,
      "시범인증": 9515,
      "시교육청은": 9516,
      "신중원": 9517,
      "실질적인": 9518,
      "아톰은": 9519,
      "액셀러레이터": 9520,
      "양극화": 9521,
      "어떨지": 9522,
      "없으니까": 9523,
      "연동한": 9524,
      "연령별로는": 9525,
      "연방과학기술원": 9526,
      "의뢰해": 9527,
      "이바지할": 9528,
      "인센티브가": 9529,
      "일각에선": 9530,
      "일환으로": 9531,
      "입력하면": 9532,
      "입원환자의": 9533,
      "저커버그": 9534,
      "전신피로": 9535,
      "절실히": 9536,
      "제주지사와": 9537,
      "조례를": 9538,
      "종사자": 9539,
      "주주총회에서": 9540,
      "주최한": 9541,
      "중복포함": 9542,
      "즐겁게": 9543,
      "지배구조": 9544,
      "지하주차장": 9545,
      "최경진": 9546,
      "최후의": 9547,
      "출판사는": 9548,
      "캘리포니아주": 9549,
      "캠프에": 9550,
      "컨벤션에서": 9551,
      "쿠파고": 9552,
      "탈진실시대": 9553,
      "특기자전형": 9554,
      "패키지": 9555,
      "폐플라스틱을": 9556,
      "플래시": 9557,
      "피사체와": 9558,
      "해졌고": 9559,
      "혼합학습": 9560,
      "회계사": 9561,
      "정부서울청사에서": 9562,
      "기자재를": 9563,
      "채용설명회를": 9564,
      "정치분석실장": 9565,
      "위험수당을": 9566,
      "2003년부터": 9567,
      "최고과학기술인상을": 9568,
      "취업트랙제": 9569,
      "부가가치세는": 9570,
      "무엇인가가": 9571,
      "21세기형": 9572,
      "경선준비위원장을": 9573,
      "떨어진다는": 9574,
      "범죄위험도": 9575,
      "어디서나": 9576,
      "CJ온스타일": 9577,
      "온도조절기": 9578,
      "유니콤넷은": 9579,
      "두개골을": 9580,
      "마법사들이": 9581,
      "대표이사직을": 9582,
      "A2021091516300": 9583,
      "프랑스어는": 9584,
      "학술지인": 9585,
      "CNN을": 9586,
      "GVCS글로벌선진학교는": 9587,
      "돌연변이가": 9588,
      "이노베이션센터": 9589,
      "스마트골프클럽은": 9590,
      "지역균형선발전형": 9591,
      "797억": 9592,
      "Blended": 9593,
      "CVC": 9594,
      "Comp": 9595,
      "GICC": 9596,
      "GPU": 9597,
      "HRD": 9598,
      "High": 9599,
      "IMM인": 9600,
      "Light": 9601,
      "MZ세대": 9602,
      "Management": 9603,
      "NUGU": 9604,
      "Scienc": 9605,
      "System": 9606,
      "dkwon": 9607,
      "ipsi": 9608,
      "jeahyun": 9609,
      "tainment": 9610,
      "獸魂碑": 9611,
      "가천대": 9612,
      "개헌을": 9613,
      "거기서": 9614,
      "거든요": 9615,
      "고영권": 9616,
      "공주대": 9617,
      "구인구직": 9618,
      "그랜드스피": 9619,
      "급속히": 9620,
      "기숙사": 9621,
      "김범석": 9622,
      "김예진": 9623,
      "김진유": 9624,
      "깊숙이": 9625,
      "노부오": 9626,
      "농어촌": 9627,
      "느리세요": 9628,
      "다쏘시스템": 9629,
      "다품다": 9630,
      "다이내믹": 9631,
      "더엣지": 9632,
      "독특한": 9633,
      "리서치": 9634,
      "리스크가": 9635,
      "만만치": 9636,
      "메이크업": 9637,
      "명실상부한": 9638,
      "모은다": 9639,
      "모의실험을": 9640,
      "모건스탠리에서": 9641,
      "무인상담": 9642,
      "미친다": 9643,
      "밑그림을": 9644,
      "박용만": 9645,
      "발광다이오드": 9646,
      "법정대리인이": 9647,
      "베스트먼트": 9648,
      "보스턴": 9649,
      "복화술사": 9650,
      "부울경": 9651,
      "부다가야의": 9652,
      "비영리": 9653,
      "비즈니스": 9654,
      "산타체칠": 9655,
      "산스크리트": 9656,
      "생중계": 9657,
      "서애자": 9658,
      "세븐일레븐": 9659,
      "쇼호스트로": 9660,
      "수혼비": 9661,
      "스티븐": 9662,
      "시카고대에서": 9663,
      "실리콘밸리": 9664,
      "심재영": 9665,
      "싱크탱크": 9666,
      "아키텍": 9667,
      "아르바이트": 9668,
      "어젠다K": 9669,
      "에이전트": 9670,
      "엔터테인먼트": 9671,
      "엠비전X": 9672,
      "역진적인": 9673,
      "완전자율주행": 9674,
      "왕태석": 9675,
      "용문상담심리대학원대학교": 9676,
      "원통막대": 9677,
      "원거리에서": 9678,
      "유정아": 9679,
      "윤채은": 9680,
      "윤태곤": 9681,
      "이정미": 9682,
      "익스피리언스": 9683,
      "인플루언": 9684,
      "적절한": 9685,
      "전과목이": 9686,
      "정태영": 9687,
      "직격탄을": 9688,
      "참고인으로": 9689,
      "캠핑카": 9690,
      "컨소시엄": 9691,
      "코엑스에서": 9692,
      "테헤란로": 9693,
      "펜실베니아캠퍼스": 9694,
      "학석사연계": 9695,
      "홈트레이닝": 9696,
      "환골탈태": 9697,
      "지능데이터연구": 9698,
      "한국직업능력연구원장": 9699,
      "정책위의장": 9700,
      "000904": 9701,
      "물류회사들은": 9702,
      "현대커머셜": 9703,
      "도시통합운영센터": 9704,
      "로봇청소기": 9705,
      "공동취재사진": 9706,
      "바이오닉스연구센터": 9707,
      "디어라이프에서": 9708,
      "애플워치7": 9709,
      "스크램제트엔진": 9710,
      "SK하이닉스": 9711,
      "AACSB": 9712,
      "수성알파시티": 9713,
      "조세저항을": 9714,
      "운전면허증": 9715,
      "아프가니스탄": 9716,
      "이오나이저": 9717,
      "A2021091516300000904": 9718,
      "IMM인베스트먼트": 9719,
      "Science": 9720,
      "산타체칠리아": 9721,
      "!\"": 9722,
      "!”": 9723,
      "%'": 9724,
      "%’": 9725,
      "')": 9726,
      "(|": 9727,
      "(㎿": 9728,
      "))": 9729,
      ").": 9730,
      "*[": 9731,
      "-\"": 9732,
      ".)": 9733,
      ".’": 9734,
      "02": 9735,
      "03": 9736,
      "04": 9737,
      "09": 9738,
      "070": 9739,
      "0점에서": 9740,
      "034": 9741,
      "0이기": 9742,
      "0점으로": 9743,
      "047": 9744,
      "0점에": 9745,
      "075": 9746,
      "040억": 9747,
      "040명을": 9748,
      "1ㆍ": 9749,
      "1기": 9750,
      "1대": 9751,
      "1등": 9752,
      "1방": 9753,
      "1분": 9754,
      "1의": 9755,
      "1점": 9756,
      "1집": 9757,
      "1테": 9758,
      "1학생": 9759,
      "119": 9760,
      "1명을": 9761,
      "150": 9762,
      "1명의": 9763,
      "1학년": 9764,
      "1등급": 9765,
      "125": 9766,
      "12년": 9767,
      "124": 9768,
      "17일": 9769,
      "1DL": 9770,
      "1기의": 9771,
      "1문항": 9772,
      "120만": 9773,
      "130만": 9774,
      "123명": 9775,
      "1mm": 9776,
      "1개소": 9777,
      "130억": 9778,
      "1주택자": 9779,
      "1학년은": 9780,
      "1스마트기기": 9781,
      "1주일에": 9782,
      "1주택이": 9783,
      "28": 9784,
      "2C": 9785,
      "2R": 9786,
      "2가": 9787,
      "2보": 9788,
      "2상": 9789,
      "2위": 9790,
      "2회": 9791,
      "219": 9792,
      "2가지": 9793,
      "2명의": 9794,
      "2학년": 9795,
      "2과목": 9796,
      "28개": 9797,
      "27명": 9798,
      "2조4": 9799,
      "2건으로": 9800,
      "2가지다": 9801,
      "2생활권": 9802,
      "2학년은": 9803,
      "2건이": 9804,
      "2달간": 9805,
      "2134": 9806,
      "21년부터": 9807,
      "225억": 9808,
      "33": 9809,
      "3m": 9810,
      "3가": 9811,
      "3과": 9812,
      "3을": 9813,
      "3조": 9814,
      "3초": 9815,
      "3층": 9816,
      "320": 9817,
      "3시간": 9818,
      "3이나": 9819,
      "350": 9820,
      "315": 9821,
      "3위를": 9822,
      "35년": 9823,
      "3명이": 9824,
      "3등급": 9825,
      "370": 9826,
      "316": 9827,
      "3300": 9828,
      "390": 9829,
      "38개": 9830,
      "37명": 9831,
      "3권을": 9832,
      "356": 9833,
      "3조4": 9834,
      "33억": 9835,
      "3배수를": 9836,
      "330억": 9837,
      "350만": 9838,
      "380만": 9839,
      "3종을": 9840,
      "3주에": 9841,
      "340명": 9842,
      "45": 9843,
      "4K": 9844,
      "4곳": 9845,
      "4기": 9846,
      "4로": 9847,
      "4번": 9848,
      "4억": 9849,
      "4위": 9850,
      "4의": 9851,
      "4점": 9852,
      "4종": 9853,
      "4층": 9854,
      "4회": 9855,
      "400": 9856,
      "4가지": 9857,
      "4명의": 9858,
      "4일반": 9859,
      "424": 9860,
      "41회": 9861,
      "4문항": 9862,
      "4실을": 9863,
      "4분의": 9864,
      "4학년은": 9865,
      "4시까지": 9866,
      "4조6": 9867,
      "411억": 9868,
      "41mm": 9869,
      "55": 9870,
      "5로": 9871,
      "5보": 9872,
      "5억": 9873,
      "5에": 9874,
      "5위": 9875,
      "5층": 9876,
      "5평": 9877,
      "5명을": 9878,
      "5가지": 9879,
      "5명의": 9880,
      "518": 9881,
      "56년": 9882,
      "524": 9883,
      "5개월": 9884,
      "5분의": 9885,
      "5실은": 9886,
      "523명": 9887,
      "5건으로": 9888,
      "5나노": 9889,
      "530억": 9890,
      "5가지로": 9891,
      "5종을": 9892,
      "590억": 9893,
      "61": 9894,
      "6급": 9895,
      "6대": 9896,
      "6번": 9897,
      "6실": 9898,
      "6조": 9899,
      "6회": 9900,
      "6명을": 9901,
      "6명의": 9902,
      "6학년": 9903,
      "660": 9904,
      "6등급": 9905,
      "68년": 9906,
      "6시에": 9907,
      "63개": 9908,
      "621": 9909,
      "6대를": 9910,
      "6000억": 9911,
      "6구간": 9912,
      "62억": 9913,
      "6대의": 9914,
      "626": 9915,
      "636": 9916,
      "68명": 9917,
      "658": 9918,
      "65만": 9919,
      "6곳이": 9920,
      "77": 9921,
      "78": 9922,
      "7만": 9923,
      "7에": 9924,
      "7인": 9925,
      "7층": 9926,
      "720": 9927,
      "700": 9928,
      "750": 9929,
      "7학년": 9930,
      "7명이": 9931,
      "7개월": 9932,
      "7이내": 9933,
      "77명": 9934,
      "7곳은": 9935,
      "7나노": 9936,
      "84": 9937,
      "86": 9938,
      "8대": 9939,
      "8시": 9940,
      "8이": 9941,
      "8쪽": 9942,
      "8척": 9943,
      "860": 9944,
      "8명이": 9945,
      "870": 9946,
      "816": 9947,
      "880": 9948,
      "84개": 9949,
      "846": 9950,
      "844": 9951,
      "8종의": 9952,
      "840억": 9953,
      "86억": 9954,
      "890억": 9955,
      "8개월간": 9956,
      "9명": 9957,
      "9분": 9958,
      "9주": 9959,
      "9시간": 9960,
      "9번째": 9961,
      "97년": 9962,
      "930만": 9963,
      "923명": 9964,
      ";.": 9965,
      "='": 9966,
      "?!": 9967,
      "?\"": 9968,
      "?’": 9969,
      "?”": 9970,
      "?;.": 9971,
      "AF": 9972,
      "AL": 9973,
      "AT": 9974,
      "AU": 9975,
      "AV": 9976,
      "Ag": 9977,
      "Am": 9978,
      "Au": 9979,
      "A의": 9980,
      "A등급": 9981,
      "ASM": 9982,
      "BI": 9983,
      "BR": 9984,
      "BS": 9985,
      "Bc": 9986,
      "Br": 9987,
      "Back": 9988,
      "B2C": 9989,
      "C3": 9990,
      "CA": 9991,
      "CI": 9992,
      "Cl": 9993,
      "C는": 9994,
      "C와": 9995,
      "C부산": 9996,
      "Con": 9997,
      "C신약": 9998,
      "Cov": 9999,
      "Canc": 10000,
      "Center": 10001,
      "CBS": 10002,
      "DA": 10003,
      "DW": 10004,
      "De": 10005,
      "Di": 10006,
      "Dr": 10007,
      "Den": 10008,
      "D예산을": 10009,
      "Dec": 10010,
      "Des": 10011,
      "EG": 10012,
      "EQ": 10013,
      "Eu": 10014,
      "E에": 10015,
      "EST": 10016,
      "EPS": 10017,
      "EAM": 10018,
      "EAN": 10019,
      "Eth": 10020,
      "FR": 10021,
      "F35": 10022,
      "Fron": 10023,
      "FLO": 10024,
      "FEST": 10025,
      "Go": 10026,
      "GPS": 10027,
      "Golf": 10028,
      "Glo": 10029,
      "GC부산": 10030,
      "HC": 10031,
      "HT": 10032,
      "HRI": 10033,
      "HGB": 10034,
      "HDB": 10035,
      "HOP": 10036,
      "IN": 10037,
      "IR": 10038,
      "IU": 10039,
      "ICE": 10040,
      "ION": 10041,
      "IEE": 10042,
      "ISO": 10043,
      "IHC": 10044,
      "Journal": 10045,
      "KF": 10046,
      "Kㆍ": 10047,
      "KAI": 10048,
      "K반도체": 10049,
      "KGB": 10050,
      "KPS": 10051,
      "KUS": 10052,
      "KIP": 10053,
      "Kick": 10054,
      "LT": 10055,
      "Li": 10056,
      "L의": 10057,
      "L짜리": 10058,
      "LAB": 10059,
      "LIN": 10060,
      "M자": 10061,
      "MIC": 10062,
      "MICE": 10063,
      "N번": 10064,
      "NAI": 10065,
      "NET": 10066,
      "NLP": 10067,
      "NAV": 10068,
      "Ou": 10069,
      "OLED": 10070,
      "Pu": 10071,
      "P형": 10072,
      "Pol": 10073,
      "P26": 10074,
      "QA": 10075,
      "QR": 10076,
      "Ren": 10077,
      "ROS": 10078,
      "R2R": 10079,
      "SS": 10080,
      "Sm": 10081,
      "Sign": 10082,
      "SHOP": 10083,
      "SP26": 10084,
      "T8": 10085,
      "TA": 10086,
      "TB": 10087,
      "TF": 10088,
      "Ta": 10089,
      "Th": 10090,
      "Tr": 10091,
      "T대학": 10092,
      "Tou": 10093,
      "Tec": 10094,
      "TEU": 10095,
      "Un": 10096,
      "Up": 10097,
      "UAM": 10098,
      "Vo": 10099,
      "VLCC": 10100,
      "VAT": 10101,
      "Zil": 10102,
      "ZUS": 10103,
      "ati": 10104,
      "amm": 10105,
      "bu": 10106,
      "bal": 10107,
      "ble": 10108,
      "cl": 10109,
      "chan": 10110,
      "cle": 10111,
      "coder": 10112,
      "dea": 10113,
      "ed": 10114,
      "ep": 10115,
      "ex": 10116,
      "e심": 10117,
      "e편": 10118,
      "ean": 10119,
      "eer": 10120,
      "ewa": 10121,
      "ff": 10122,
      "fea": 10123,
      "fin": 10124,
      "gr": 10125,
      "gu": 10126,
      "gwon": 10127,
      "gati": 10128,
      "hal": 10129,
      "hou": 10130,
      "hwa": 10131,
      "i4": 10132,
      "ian": 10133,
      "ide": 10134,
      "iron": 10135,
      "ive": 10136,
      "ji": 10137,
      "jil": 10138,
      "jec": 10139,
      "journal": 10140,
      "ka": 10141,
      "lig": 10142,
      "lat": 10143,
      "live": 10144,
      "ml": 10145,
      "mo": 10146,
      "m로": 10147,
      "mec": 10148,
      "mation": 10149,
      "nded": 10150,
      "nov": 10151,
      "ogy": 10152,
      "ple": 10153,
      "par": 10154,
      "pean": 10155,
      "rCT": 10156,
      "res": 10157,
      "rPET": 10158,
      "rple": 10159,
      "se": 10160,
      "sCT": 10161,
      "set": 10162,
      "scle": 10163,
      "tv": 10164,
      "ty": 10165,
      "tac": 10166,
      "tsi": 10167,
      "twor": 10168,
      "tGolf": 10169,
      "ub": 10170,
      "ution": 10171,
      "ural": 10172,
      "vol": 10173,
      "viron": 10174,
      "wom": 10175,
      "wide": 10176,
      "||": 10177,
      "’)": 10178,
      "“(": 10179,
      "Ⅰ과": 10180,
      "Ⅱ로": 10181,
      "☞\"": 10182,
      "ㆍ관": 10183,
      "ㆍ반": 10184,
      "ㆍ중": 10185,
      "ㆍ인공지능": 10186,
      "ㆍ운영": 10187,
      "ㆍ드론": 10188,
      "ㆍ청년": 10189,
      "ㆍ중앙": 10190,
      "ㆍ보험": 10191,
      "ㆍ오프라인": 10192,
      "ㆍ업종": 10193,
      "ㆍ신산업": 10194,
      "ㆍ안병철": 10195,
      "ㆍ홍민희": 10196,
      "ㆍ신중원": 10197,
      "ㆍAL": 10198,
      "㈜,": 10199,
      "㎡(": 10200,
      "㎡)": 10201,
      "壇絃": 10202,
      "子杏": 10203,
      "孔子杏": 10204,
      "官學": 10205,
      "尖閣": 10206,
      "得習": 10207,
      "歌圖": 10208,
      "神人": 10209,
      "非小": 10210,
      "가게": 10211,
      "가금": 10212,
      "가깝": 10213,
      "가끔": 10214,
      "가대": 10215,
      "가도": 10216,
      "가돼": 10217,
      "가라": 10218,
      "가락": 10219,
      "가량": 10220,
      "가볍": 10221,
      "가뿐": 10222,
      "가서": 10223,
      "가솔": 10224,
      "가스": 10225,
      "가온": 10226,
      "가을": 10227,
      "가의": 10228,
      "가제": 10229,
      "가처": 10230,
      "가폰": 10231,
      "가피": 10232,
      "가하는": 10233,
      "가하고": 10234,
      "가한다": 10235,
      "가부터": 10236,
      "가도록": 10237,
      "가자는": 10238,
      "가리는": 10239,
      "가겠다": 10240,
      "가리고": 10241,
      "가르는": 10242,
      "가들과": 10243,
      "가결과를": 10244,
      "가수의": 10245,
      "가웠다": 10246,
      "가결과는": 10247,
      "가결과에": 10248,
      "가니까": 10249,
      "가서야": 10250,
      "가면서도": 10251,
      "가세하고": 10252,
      "각계": 10253,
      "각광": 10254,
      "각서": 10255,
      "각을": 10256,
      "각자": 10257,
      "각품": 10258,
      "각하지": 10259,
      "각되고": 10260,
      "각자의": 10261,
      "각도로": 10262,
      "간에": 10263,
      "간접": 10264,
      "간판": 10265,
      "간한": 10266,
      "간호": 10267,
      "간에는": 10268,
      "간다고": 10269,
      "간소화": 10270,
      "간호스": 10271,
      "갈라": 10272,
      "갈비": 10273,
      "갈등을": 10274,
      "갈리는": 10275,
      "갈렸다": 10276,
      "갈등이다": 10277,
      "감도": 10278,
      "감발": 10279,
      "감식": 10280,
      "감싸": 10281,
      "감아": 10282,
      "감이": 10283,
      "감점": 10284,
      "감증": 10285,
      "감치": 10286,
      "감할": 10287,
      "감행": 10288,
      "감하는": 10289,
      "감이라": 10290,
      "감하면서": 10291,
      "감사를": 10292,
      "감성이": 10293,
      "감나게": 10294,
      "감탄도": 10295,
      "감추고": 10296,
      "갑니다": 10297,
      "갑이지만": 10298,
      "갑론을": 10299,
      "값을": 10300,
      "갔어요": 10301,
      "강건": 10302,
      "강당": 10303,
      "강렬": 10304,
      "강릉": 10305,
      "강사": 10306,
      "강서": 10307,
      "강연": 10308,
      "강을": 10309,
      "강좌": 10310,
      "강하는": 10311,
      "강하기": 10312,
      "강하다": 10313,
      "강사와": 10314,
      "강자들이": 10315,
      "강하다는": 10316,
      "강연도": 10317,
      "갖기": 10318,
      "같지만": 10319,
      "같아서": 10320,
      "갚지": 10321,
      "개국": 10322,
      "개량": 10323,
      "개뿐": 10324,
      "개축": 10325,
      "개탄": 10326,
      "개에서": 10327,
      "개하기": 10328,
      "개정도": 10329,
      "개점을": 10330,
      "개장의": 10331,
      "개정해": 10332,
      "개개인이": 10333,
      "객을": 10334,
      "객이": 10335,
      "객주": 10336,
      "객체": 10337,
      "객들은": 10338,
      "갯속": 10339,
      "거간": 10340,
      "거두": 10341,
      "거둔": 10342,
      "거둘": 10343,
      "거뒀": 10344,
      "거버": 10345,
      "거번": 10346,
      "거부": 10347,
      "거스": 10348,
      "거슬": 10349,
      "거야": 10350,
      "거절": 10351,
      "거점": 10352,
      "거제": 10353,
      "거짓": 10354,
      "거칠": 10355,
      "거해": 10356,
      "거대한": 10357,
      "거제조": 10358,
      "거기에": 10359,
      "거제시": 10360,
      "거기는": 10361,
      "거점이다": 10362,
      "거티브": 10363,
      "거스를": 10364,
      "거치고": 10365,
      "거쳤다": 10366,
      "거두는": 10367,
      "거간이": 10368,
      "걱정이": 10369,
      "건가": 10370,
      "건너": 10371,
      "건네": 10372,
      "건드": 10373,
      "건립": 10374,
      "건수": 10375,
      "건에": 10376,
      "건지": 10377,
      "건에서": 10378,
      "건수를": 10379,
      "건마다": 10380,
      "걷고": 10381,
      "걷어": 10382,
      "걷은": 10383,
      "걸고": 10384,
      "걸기": 10385,
      "걸로": 10386,
      "걸림": 10387,
      "걸어": 10388,
      "걸으": 10389,
      "걸리는": 10390,
      "걸리고": 10391,
      "걸렸다": 10392,
      "걸린다": 10393,
      "걸었으니": 10394,
      "검출": 10395,
      "겁먹": 10396,
      "겁지": 10397,
      "것인": 10398,
      "것입니다": 10399,
      "것인데": 10400,
      "것일지": 10401,
      "겉보기": 10402,
      "게는": 10403,
      "게도": 10404,
      "게으": 10405,
      "게이": 10406,
      "게이트": 10407,
      "겐은": 10408,
      "겠어요": 10409,
      "겠습니다": 10410,
      "겠느냐": 10411,
      "겨날": 10412,
      "겨둔": 10413,
      "겨레": 10414,
      "겨를": 10415,
      "겨야": 10416,
      "겨졌": 10417,
      "겨주": 10418,
      "겨주기": 10419,
      "격상": 10420,
      "격언": 10421,
      "격화": 10422,
      "격으로": 10423,
      "격자가": 10424,
      "격차를": 10425,
      "겪는": 10426,
      "겪어": 10427,
      "겪으며": 10428,
      "겪으면": 10429,
      "겪으면서": 10430,
      "견본": 10431,
      "견제": 10432,
      "견제를": 10433,
      "견제와": 10434,
      "결도": 10435,
      "결의": 10436,
      "결집": 10437,
      "결하는": 10438,
      "결되기": 10439,
      "결성은": 10440,
      "결손을": 10441,
      "결론을": 10442,
      "결함을": 10443,
      "겸직": 10444,
      "경감": 10445,
      "경계": 10446,
      "경구": 10447,
      "경력": 10448,
      "경배": 10449,
      "경보": 10450,
      "경연": 10451,
      "경욱": 10452,
      "경을": 10453,
      "경의": 10454,
      "경이": 10455,
      "경직": 10456,
      "경력을": 10457,
      "경기가": 10458,
      "경유지": 10459,
      "경주의": 10460,
      "경전은": 10461,
      "계기": 10462,
      "계승": 10463,
      "계정": 10464,
      "계기반": 10465,
      "계기를": 10466,
      "계고교": 10467,
      "계수는": 10468,
      "계비로": 10469,
      "고대": 10470,
      "고독": 10471,
      "고만": 10472,
      "고맙": 10473,
      "고무": 10474,
      "고삐": 10475,
      "고성": 10476,
      "고안": 10477,
      "고위": 10478,
      "고의": 10479,
      "고작": 10480,
      "고장": 10481,
      "고정": 10482,
      "고칠": 10483,
      "고에서": 10484,
      "고했다": 10485,
      "고사를": 10486,
      "고위험": 10487,
      "고지원을": 10488,
      "고공비행": 10489,
      "고살아": 10490,
      "고수하고": 10491,
      "고차원": 10492,
      "고개를": 10493,
      "고났기": 10494,
      "고전강독": 10495,
      "고출력": 10496,
      "고해상": 10497,
      "곡점을": 10498,
      "곤혹": 10499,
      "골자": 10500,
      "골퍼": 10501,
      "골자는": 10502,
      "골자로": 10503,
      "곰팡": 10504,
      "곱씹": 10505,
      "곳도": 10506,
      "곳의": 10507,
      "곳인": 10508,
      "곳에선": 10509,
      "곳이었다": 10510,
      "곳이란": 10511,
      "공계": 10512,
      "공로": 10513,
      "공룡": 10514,
      "공명": 10515,
      "공백": 10516,
      "공상": 10517,
      "공제": 10518,
      "공조": 10519,
      "공중": 10520,
      "공직": 10521,
      "공했다": 10522,
      "공되는": 10523,
      "공제도": 10524,
      "공장은": 10525,
      "공사가": 10526,
      "공장과": 10527,
      "공장으로": 10528,
      "공고에": 10529,
      "공립대": 10530,
      "공선의": 10531,
      "공고만": 10532,
      "과반": 10533,
      "과소": 10534,
      "과외": 10535,
      "과제도": 10536,
      "과장이": 10537,
      "과제는": 10538,
      "과세는": 10539,
      "과실로": 10540,
      "과소비를": 10541,
      "관대": 10542,
      "관람": 10543,
      "관료": 10544,
      "관문": 10545,
      "관악": 10546,
      "관에": 10547,
      "관용": 10548,
      "관은": 10549,
      "관절": 10550,
      "관해": 10551,
      "관으로": 10552,
      "관들로부터": 10553,
      "관공선의": 10554,
      "괄호": 10555,
      "광각": 10556,
      "광대": 10557,
      "광복": 10558,
      "광산": 10559,
      "광전": 10560,
      "광폭": 10561,
      "광학": 10562,
      "광호": 10563,
      "광통신": 10564,
      "광역시": 10565,
      "광판을": 10566,
      "광가속": 10567,
      "광범위": 10568,
      "광풍이": 10569,
      "광장비가": 10570,
      "괴롭": 10571,
      "괴에": 10572,
      "교대": 10573,
      "교묘": 10574,
      "교안": 10575,
      "교원": 10576,
      "교정": 10577,
      "교차": 10578,
      "교토": 10579,
      "교환": 10580,
      "교이다": 10581,
      "교테크": 10582,
      "교실에서": 10583,
      "교체가": 10584,
      "교감하면서": 10585,
      "구권": 10586,
      "구단": 10587,
      "구려": 10588,
      "구로": 10589,
      "구르": 10590,
      "구벌": 10591,
      "구별": 10592,
      "구사": 10593,
      "구시": 10594,
      "구애": 10595,
      "구요": 10596,
      "구의": 10597,
      "구입": 10598,
      "구적": 10599,
      "구청": 10600,
      "구에서": 10601,
      "구하고": 10602,
      "구하며": 10603,
      "구인이": 10604,
      "구제는": 10605,
      "구비해": 10606,
      "구독자": 10607,
      "구미의": 10608,
      "국계": 10609,
      "국문": 10610,
      "국에": 10611,
      "국채": 10612,
      "국책": 10613,
      "국한": 10614,
      "국으로": 10615,
      "국들이": 10616,
      "국장으로": 10617,
      "국들에": 10618,
      "국도와": 10619,
      "국면을": 10620,
      "국고지원을": 10621,
      "국공립대": 10622,
      "군은": 10623,
      "군본부": 10624,
      "군자문": 10625,
      "굳이": 10626,
      "굴지": 10627,
      "궈밍": 10628,
      "권리": 10629,
      "권성": 10630,
      "권역": 10631,
      "권영": 10632,
      "권제": 10633,
      "권에서": 10634,
      "권한다": 10635,
      "권자를": 10636,
      "궤도가": 10637,
      "궤적이": 10638,
      "귀속": 10639,
      "귀착": 10640,
      "귀하고": 10641,
      "귀결되기": 10642,
      "규제는": 10643,
      "규합해": 10644,
      "균관대": 10645,
      "그걸": 10646,
      "그늘": 10647,
      "그루": 10648,
      "그를": 10649,
      "그립": 10650,
      "그외": 10651,
      "그쳤": 10652,
      "그친": 10653,
      "그것은": 10654,
      "그것을": 10655,
      "그치고": 10656,
      "그것보다": 10657,
      "그쳤다": 10658,
      "그널이": 10659,
      "그치지": 10660,
      "그곳의": 10661,
      "극빈": 10662,
      "극심": 10663,
      "극적인": 10664,
      "극대화": 10665,
      "극도로": 10666,
      "극이었던": 10667,
      "극단적으로": 10668,
      "근시": 10669,
      "근처": 10670,
      "근한": 10671,
      "근해도": 10672,
      "근간은": 10673,
      "근거해": 10674,
      "글도": 10675,
      "글쓰": 10676,
      "글자가": 10677,
      "글들을": 10678,
[...]
